{
  "version": "1.0",
  "truncation": null,
  "padding": null,
  "added_tokens": [
    {
      "id": 0,
      "content": "<s>",
      "single_word": false,
      "lstrip": false,
      "rstrip": false,
      "normalized": false,
      "special": true
    },
    {
      "id": 1,
      "content": "<pad>",
      "single_word": false,
      "lstrip": false,
      "rstrip": false,
      "normalized": false,
      "special": true
    },
    {
      "id": 2,
      "content": "</s>",
      "single_word": false,
      "lstrip": false,
      "rstrip": false,
      "normalized": false,
      "special": true
    },
    {
      "id": 3,
      "content": "<unk>",
      "single_word": false,
      "lstrip": false,
      "rstrip": false,
      "normalized": false,
      "special": true
    },
    {
      "id": 4,
      "content": "<mask>",
      "single_word": false,
      "lstrip": false,
      "rstrip": false,
      "normalized": false,
      "special": true
    }
  ],
  "normalizer": {
    "type": "NFKC"
  },
  "pre_tokenizer": {
    "type": "ByteLevel",
    "add_prefix_space": false,
    "trim_offsets": true,
    "use_regex": true
  },
  "post_processor": null,
  "decoder": {
    "type": "ByteLevel",
    "add_prefix_space": true,
    "trim_offsets": true,
    "use_regex": true
  },
  "model": {
    "type": "BPE",
    "dropout": null,
    "unk_token": null,
    "continuing_subword_prefix": null,
    "end_of_word_suffix": null,
    "fuse_unk": false,
    "byte_fallback": false,
    "ignore_merges": false,
    "vocab": {
      "<s>": 0,
      "<pad>": 1,
      "</s>": 2,
      "<unk>": 3,
      "<mask>": 4,
      "!": 5,
      "\"": 6,
      "%": 7,
      "&": 8,
      "'": 9,
      "(": 10,
      ")": 11,
      "*": 12,
      "+": 13,
      ",": 14,
      "-": 15,
      ".": 16,
      "/": 17,
      "0": 18,
      "1": 19,
      "2": 20,
      "3": 21,
      "4": 22,
      "5": 23,
      "6": 24,
      "7": 25,
      "8": 26,
      "9": 27,
      ":": 28,
      ";": 29,
      "<": 30,
      "=": 31,
      ">": 32,
      "?": 33,
      "@": 34,
      "A": 35,
      "B": 36,
      "C": 37,
      "D": 38,
      "E": 39,
      "F": 40,
      "G": 41,
      "H": 42,
      "I": 43,
      "J": 44,
      "K": 45,
      "L": 46,
      "M": 47,
      "N": 48,
      "O": 49,
      "P": 50,
      "Q": 51,
      "R": 52,
      "S": 53,
      "T": 54,
      "U": 55,
      "V": 56,
      "W": 57,
      "X": 58,
      "Y": 59,
      "Z": 60,
      "[": 61,
      "\\": 62,
      "]": 63,
      "_": 64,
      "a": 65,
      "b": 66,
      "c": 67,
      "d": 68,
      "e": 69,
      "f": 70,
      "g": 71,
      "h": 72,
      "i": 73,
      "j": 74,
      "k": 75,
      "l": 76,
      "m": 77,
      "n": 78,
      "o": 79,
      "p": 80,
      "q": 81,
      "r": 82,
      "s": 83,
      "t": 84,
      "u": 85,
      "v": 86,
      "w": 87,
      "x": 88,
      "y": 89,
      "z": 90,
      "¡": 91,
      "¢": 92,
      "£": 93,
      "¤": 94,
      "¥": 95,
      "¦": 96,
      "§": 97,
      "¨": 98,
      "©": 99,
      "ª": 100,
      "«": 101,
      "¬": 102,
      "®": 103,
      "¯": 104,
      "°": 105,
      "±": 106,
      "²": 107,
      "³": 108,
      "´": 109,
      "µ": 110,
      "¶": 111,
      "·": 112,
      "¸": 113,
      "¹": 114,
      "º": 115,
      "»": 116,
      "¼": 117,
      "½": 118,
      "¾": 119,
      "¿": 120,
      "Â": 121,
      "Ã": 122,
      "Ä": 123,
      "Å": 124,
      "Æ": 125,
      "Î": 126,
      "Ï": 127,
      "Ð": 128,
      "Ñ": 129,
      "Ø": 130,
      "Ù": 131,
      "á": 132,
      "â": 133,
      "ã": 134,
      "ä": 135,
      "å": 136,
      "æ": 137,
      "ç": 138,
      "è": 139,
      "é": 140,
      "ë": 141,
      "ĉ": 142,
      "Ċ": 143,
      "č": 144,
      "Ġ": 145,
      "Ģ": 146,
      "ģ": 147,
      "Ĥ": 148,
      "ĥ": 149,
      "Ħ": 150,
      "ħ": 151,
      "Ĩ": 152,
      "ĩ": 153,
      "Ī": 154,
      "ī": 155,
      "Ĭ": 156,
      "ĭ": 157,
      "Į": 158,
      "į": 159,
      "İ": 160,
      "ı": 161,
      "Ĳ": 162,
      "ĳ": 163,
      "Ĵ": 164,
      "ĵ": 165,
      "Ķ": 166,
      "ķ": 167,
      "Ĺ": 168,
      "ĺ": 169,
      "Ļ": 170,
      "ļ": 171,
      "Ľ": 172,
      "ľ": 173,
      "Ŀ": 174,
      "ŀ": 175,
      "Ł": 176,
      "ł": 177,
      "Ń": 178,
      "á»": 179,
      "áº": 180,
      "Ġc": 181,
      "Ġt": 182,
      "ng": 183,
      "ĠÄ": 184,
      "Ġn": 185,
      "Ãł": 186,
      "ĠÄĳ": 187,
      "há»": 188,
      "Ġl": 189,
      "Ã¡": 190,
      "Æ°": 191,
      "Ġv": 192,
      "Ġm": 193,
      "háº": 194,
      "Ġs": 195,
      "Ġb": 196,
      "Ġk": 197,
      "iá»": 198,
      "Ã³": 199,
      "Æ°á»": 200,
      "áº¡": 201,
      "hÃ": 202,
      "Ġg": 203,
      "Ġd": 204,
      "nh": 205,
      "áº¿": 206,
      "ĠcÃ³": 207,
      "áº£": 208,
      "á»Ļ": 209,
      "Ġp": 210,
      "Ġth": 211,
      "iá»ĩ": 212,
      "Ġh": 213,
      "Ġtr": 214,
      "Ġnh": 215,
      "ĠvÃł": 216,
      "Ã¡c": 217,
      "á»ĳ": 218,
      "¥t": 219,
      "Ġgi": 220,
      "Æ°á»£": 221,
      "Ġthá»": 222,
      "Ãª": 223,
      "Æ¡": 224,
      "Ġch": 225,
      "Ġcháº": 226,
      "Ã´": 227,
      "ĠÄĳá»": 228,
      "Ġvá»": 229,
      "áº¡i": 230,
      "áº¡n": 231,
      "Ãªn": 232,
      "Ġcá»": 233,
      "iáº¿": 234,
      "Ġhá»": 235,
      "ao": 236,
      "á»Ļt": 237,
      "ĠT": 238,
      "Ġchá»": 239,
      "ĠlÃł": 240,
      "hÃ´": 241,
      "Ġdá»": 242,
      "Ġcháº¥t": 243,
      "iá»ĩu": 244,
      "Ġpháº": 245,
      "Ġkh": 246,
      "Ġng": 247,
      "oáº¡i": 248,
      "ĠtÃ": 249,
      "áº§": 250,
      "Ġthá»ĥ": 251,
      "áº£n": 252,
      "Ġbáº¡n": 253,
      "Æ°á»Ŀ": 254,
      "Ľi": 255,
      "hÃ´ng": 256,
      "Ġsá»": 257,
      "Ġcá»§": 258,
      "Ġcá»§a": 259,
      "Ġmá»Ļt": 260,
      "ĠC": 261,
      "Ġloáº¡i": 262,
      "ĠcÃ¡c": 263,
      "Æ°á»£ng": 264,
      "Ã´i": 265,
      "áº·": 266,
      "Ã¢": 267,
      "ĠnÃł": 268,
      "ĠlÆ°á»£ng": 269,
      "Äĥ": 270,
      "ĠN": 271,
      "Æ°á»£c": 272,
      "©m": 273,
      "Ġx": 274,
      "ĠkhÃ´ng": 275,
      "Ġcao": 276,
      "ĠphÃ": 277,
      "qu": 278,
      "Ġqu": 279,
      "Ġnhá»": 280,
      "Ġr": 281,
      "Ġvá»Ľi": 282,
      "ĠÄĳá»Ļ": 283,
      "ĠB": 284,
      "¯ng": 285,
      "ĠÄĳÆ°á»£c": 286,
      "uy": 287,
      "Ġbá»": 288,
      "Ġpháº©m": 289,
      "ch": 290,
      "įn": 291,
      "Ġtá»": 292,
      "Ġtá»ĳ": 293,
      "ģu": 294,
      "£p": 295,
      "Ġhá»£p": 296,
      "Æ°á»Ŀng": 297,
      "Ġdá»¥": 298,
      "Æ°Æ¡": 299,
      "Ġlá»": 300,
      "Ġsáº£n": 301,
      "ang": 302,
      "am": 303,
      "Ġdá»¥ng": 304,
      "Æ°Æ¡ng": 305,
      "iá»ĩn": 306,
      "iá»ģu": 307,
      "iá»ĥ": 308,
      "Ġchá»įn": 309,
      "Æ°á»Ľ": 310,
      "Ġcho": 311,
      "iáº¿t": 312,
      "Äĥng": 313,
      "ay": 314,
      "ĠÄĳá»ĥ": 315,
      "an": 316,
      "ĠgiÃ¡": 317,
      "ĠÄĲ": 318,
      "ĠM": 319,
      "áº¥": 320,
      "ĠmÃ¡": 321,
      "Ġnhá»¯ng": 322,
      "Ġsá»ĳ": 323,
      "Ã¬": 324,
      "ĠnÃło": 325,
      "au": 326,
      "ĠphÃ¹": 327,
      "Ġho": 328,
      "Ġsá»Ń": 329,
      "ÃŃ": 330,
      "á»ĵ": 331,
      "áº·c": 332,
      "Æ¡n": 333,
      "Ãº": 334,
      "ĠS": 335,
      "Ġnhiá»ģu": 336,
      "Æ°á»Ľc": 337,
      "áº§n": 338,
      "Ġhiá»ĩu": 339,
      "ĠtÃŃ": 340,
      "in": 341,
      "Ã¢y": 342,
      "ĠnhÆ°": 343,
      "ĠnÃªn": 344,
      "Ġmu": 345,
      "áº¥t": 346,
      "áº¯": 347,
      "Ġtá»ĳt": 348,
      "ĠlÃłm": 349,
      "Ġnháº": 350,
      "áº£i": 351,
      "Ġtháº": 352,
      "Ġliá»ĩu": 353,
      "ĠchÃ": 354,
      "ĠthÆ°á»Ŀng": 355,
      "Ã¡nh": 356,
      "ĠthÃ": 357,
      "ĠV": 358,
      "ĠnÄĥng": 359,
      "áºŃ": 360,
      "Ġtá»«": 361,
      "Ã´ng": 362,
      "ong": 363,
      "©ng": 364,
      "ģn": 365,
      "inh": 366,
      "**": 367,
      "Ġmá»": 368,
      "ĠmÃł": 369,
      "£i": 370,
      "ĠthÆ°Æ¡ng": 371,
      "Ã¡ng": 372,
      "Ãły": 373,
      "ĠÄĳá»ĵ": 374,
      "áº§u": 375,
      "Ãłng": 376,
      "Ãłi": 377,
      "Ġhoáº·c": 378,
      "ĠhÆ¡n": 379,
      "ĠmÃ¡y": 380,
      "Ġkáº¿": 381,
      "ĠK": 382,
      "ĠkhÃ¡c": 383,
      "Ã©": 384,
      "ĠL": 385,
      "Ã¡o": 386,
      "Ġná»": 387,
      "Ãłn": 388,
      "áº¿u": 389,
      "ĠÄĳáº¿": 390,
      "ĠtÃ´i": 391,
      "iá»ĩt": 392,
      "ĠhÃ": 393,
      "Ã½": 394,
      "Ġtrá»": 395,
      "Ġá»": 396,
      "ĠTÃ´i": 397,
      "00": 398,
      "±a": 399,
      "ĠBáº¡n": 400,
      "Ġphá»": 401,
      "áº£o": 402,
      "ung": 403,
      "on": 404,
      "Ã¹": 405,
      "Ŀi": 406,
      "iá»ĥm": 407,
      "Ãłnh": 408,
      "Ã²": 409,
      "Ġgá»": 410,
      "ĠG": 411,
      "Ġchiáº¿": 412,
      "Ã¡ch": 413,
      "Ġthiáº¿t": 414,
      "ĠnÆ°á»Ľc": 415,
      "Ġkháº": 416,
      "iÃªn": 417,
      "Ã¬nh": 418,
      "ĠnÃły": 419,
      "Æ°á»Ŀi": 420,
      "Ġbáº£o": 421,
      "Ġbá»ģn": 422,
      "áº£m": 423,
      "ĠH": 424,
      "Ãºp": 425,
      "±ng": 426,
      "Ġtrang": 427,
      "á»ĳn": 428,
      "ĠÃ¡o": 429,
      "ĠÄĳáº¿n": 430,
      "..": 431,
      "uáº¥t": 432,
      "©c": 433,
      "anh": 434,
      "er": 435,
      "ĠtÃŃnh": 436,
      "Ġtrong": 437,
      "Ġkháº£": 438,
      "±c": 439,
      "eo": 440,
      "ĠD": 441,
      "Ġkhi": 442,
      "Ġchiáº¿c": 443,
      "ĠP": 444,
      "ai": 445,
      "ĠgiÃºp": 446,
      "Ġmua": 447,
      "ĠÄĳÃ¡nh": 448,
      "įc": 449,
      "ĠgiÃły": 450,
      "Ġnam": 451,
      "Ġháº": 452,
      "iÃª": 453,
      "Ġváº£i": 454,
      "ĠngÆ°á»Ŀi": 455,
      "Ġdá»ħ": 456,
      "ĠÄĳiá»ĩn": 457,
      "Ġbao": 458,
      "Ġda": 459,
      "Ġthá»Ŀi": 460,
      "ĠtÃ¬": 461,
      "¢n": 462,
      "iá»ĥu": 463,
      "en": 464,
      "ĳng": 465,
      "áº«": 466,
      "áº·t": 467,
      "ĠÃ½": 468,
      "áº»": 469,
      "ĠcÃ´ng": 470,
      "uyÃªn": 471,
      "Ġsau": 472,
      "Ġgiá»": 473,
      "Ġmuá»ĳn": 474,
      "Ġlá»±a": 475,
      "Ġcáº§n": 476,
      "Ġcáº¥": 477,
      "Ġthu": 478,
      "ĠA": 479,
      "ĠtÃ¬m": 480,
      "ĠthÃłnh": 481,
      "Ġbá»ĭ": 482,
      "á»ĥ": 483,
      "Ġnháº¥t": 484,
      "ĠdÃ¡ng": 485,
      "Ġquáº§n": 486,
      "Ã¹ng": 487,
      "Ġnhau": 488,
      "em": 489,
      "Ġph": 490,
      "Ġgá»ĵ": 491,
      "ĠkÃŃ": 492,
      "Ġgá»ĵm": 493,
      "ķi": 494,
      "iÃªu": 495,
      "ĠmÃłu": 496,
      "Ġcáº§u": 497,
      "ĠÄĳá»Ļng": 498,
      "Ġtho": 499,
      "Ġy": 500,
      "Æ¡i": 501,
      "Ġ**": 502,
      "ĠÄĳá»ĵng": 503,
      "ĠÄĳiá»ĥm": 504,
      "ĠchÃŃ": 505,
      "ĠGi": 506,
      "Ã³c": 507,
      "Ġcháº¯": 508,
      "Ġ1": 509,
      "Ġcáº£": 510,
      "Ġná»¯": 511,
      "ĠtrÃªn": 512,
      "Ġpháº£i": 513,
      "Ã¡p": 514,
      "áº±ng": 515,
      "Äĥn": 516,
      "Ġcáº¥p": 517,
      "áº¹": 518,
      "áº½": 519,
      "ĠMá»Ļt": 520,
      "ar": 521,
      "ĠnhiÃªn": 522,
      "Ġchá»ĳng": 523,
      "Ńch": 524,
      "ĠsÃ¡ch": 525,
      "ĠtÃº": 526,
      "ĠtÃºi": 527,
      "Ġnhu": 528,
      "ĠthÃŃch": 529,
      "ĠTh": 530,
      "ĠcÃ¡ch": 531,
      "ĠcÅ": 532,
      "áº¡o": 533,
      "Ġsinh": 534,
      "Ġhá»ĵ": 535,
      "ot": 536,
      "ĠCÃ³": 537,
      "Ġvá»ģ": 538,
      "įng": 539,
      "ĠcÅ©ng": 540,
      "Ġphá»¥": 541,
      "as": 542,
      "ĠvÃło": 543,
      "á»ĳi": 544,
      "Ã¡y": 545,
      "Ġkho": 546,
      "Ġtiáº¿": 547,
      "áº©": 548,
      "Ġsáº¯": 549,
      "al": 550,
      "Ġbáº±ng": 551,
      "Æ°u": 552,
      "Ġháº¡": 553,
      "uyá»": 554,
      "ĠhÃłng": 555,
      "¯a": 556,
      "¬nh": 557,
      "Ġtháº¥": 558,
      "ĠhÃ¬nh": 559,
      "Ã£": 560,
      "ĠÄĳi": 561,
      "ĠÄĥ": 562,
      "áº«u": 563,
      "ĠÄĥn": 564,
      "Ġxuáº¥t": 565,
      "áº¯t": 566,
      "áº¿p": 567,
      ":**": 568,
      "ĠnhÃł": 569,
      "Ńa": 570,
      "ĠNáº¿u": 571,
      "Ã¨": 572,
      "ĠdÃłi": 573,
      "Ġtay": 574,
      "áº¹p": 575,
      "Ġmáº«u": 576,
      "Ġsáº½": 577,
      "áº¡t": 578,
      "Ġgia": 579,
      "iáº¿n": 580,
      "Ã¢u": 581,
      "ĠdÃ¢y": 582,
      "áºŃt": 583,
      "Ã³n": 584,
      "Ġsáº¯c": 585,
      "Ġngh": 586,
      "im": 587,
      "Ġvá»ĩ": 588,
      "Ġhiá»ĩn": 589,
      "á»ĵi": 590,
      "ĠÄĳang": 591,
      "hi": 592,
      "Ġtháº¿": 593,
      "Ġngá»": 594,
      "ĠÄĳáº£m": 595,
      "Ġyáº¿u": 596,
      "Ã¢n": 597,
      "ĠNg": 598,
      "ĠtÃŃn": 599,
      "...": 600,
      "ĠtiÃªu": 601,
      "Ġchu": 602,
      "«a": 603,
      "ĠdÃ¹ng": 604,
      "ĠR": 605,
      "Ã³ng": 606,
      "ĠViá»ĩt": 607,
      "ĠÄĳáº¹p": 608,
      "Ġráº¥t": 609,
      "oÃłi": 610,
      "Ġ-": 611,
      "Ġtrá»įng": 612,
      "Ġkiá»ĥu": 613,
      "Ġtiáº¿t": 614,
      "ĠthÃ´ng": 615,
      "Ġuy": 616,
      "ĠTr": 617,
      "ĠCháº": 618,
      "Ã³t": 619,
      "Ġhá»įc": 620,
      "Ã©p": 621,
      "ĠCÃ¡c": 622,
      "Ġlá»Ľ": 623,
      "ĠcÆ¡": 624,
      "ĠNam": 625,
      "Ġin": 626,
      "ĠthÃ¬": 627,
      "ĠÄĲá»ĥ": 628,
      "Ġto": 629,
      "Ġsáº¡": 630,
      "áº¡nh": 631,
      "Ġsuáº¥t": 632,
      "áº¡ng": 633,
      "Ġká»": 634,
      "á»Ļc": 635,
      "ºt": 636,
      "ĠmÃ¬nh": 637,
      "ĠmÃ¡i": 638,
      "Ġgian": 639,
      "ģm": 640,
      "Ġbá»Ļ": 641,
      "Ġá»©ng": 642,
      "áºŃy": 643,
      "Ġmáº¡i": 644,
      "Ã²n": 645,
      "Ġgá»£i": 646,
      "Ġ2": 647,
      "©a": 648,
      "Ġmá»ģm": 649,
      "Ġá»Ł": 650,
      "Ġnhiá»ĩt": 651,
      "Ġtáº¡o": 652,
      "Ġvá»ĭ": 653,
      "ĠkÃŃch": 654,
      "á»Ļng": 655,
      "it": 656,
      "Ġthoáº£i": 657,
      "ic": 658,
      "ĠnhÃ": 659,
      "ĠGiÃ¡": 660,
      "ĠgÃ¬": 661,
      "Ġsá»±": 662,
      "Ġra": 663,
      "Ġnhá»ı": 664,
      "or": 665,
      "§n": 666,
      "Ġkhá»": 667,
      "áº¥y": 668,
      "Ġbiáº¿n": 669,
      "ĠNhá»": 670,
      "áº©n": 671,
      "ĠE": 672,
      "ĠnhÆ°ng": 673,
      "Ġkiá»ĩn": 674,
      "ĠMÃ¡y": 675,
      "Ġtham": 676,
      "Ġchá»ī": 677,
      "²ng": 678,
      "Ã³a": 679,
      "Ġtra": 680,
      "Ġthá»±c": 681,
      "Æ°á»¡": 682,
      "Ġkháº£o": 683,
      "ol": 684,
      "ĭch": 685,
      "ĠtoÃłn": 686,
      "ĠbÃłn": 687,
      "Ġtráº»": 688,
      "ĠtrÆ°á»Ŀng": 689,
      "Ġhay": 690,
      "Ġvá»«a": 691,
      "Ã©t": 692,
      "op": 693,
      "ĠNhá»¯ng": 694,
      "ĠphÃ²ng": 695,
      "ĠchÃŃnh": 696,
      "Ġthá»ĭ": 697,
      "es": 698,
      "Ġbáº¿p": 699,
      "Ġnháº¹": 700,
      "áº£nh": 701,
      "Ġcháº¯n": 702,
      "Ġlá»Ľn": 703,
      "ĠcÃ¡": 704,
      "ĠQ": 705,
      "Ġná»ķi": 706,
      "Ġpháº§n": 707,
      "Ġtáº¡i": 708,
      "ĠhÃºt": 709,
      "Ġtiáº¿ng": 710,
      "áº§m": 711,
      "ĠchÆ¡i": 712,
      "Ġsá»Ł": 713,
      "000": 714,
      "ĠquÃ¡": 715,
      "Ãºt": 716,
      "ĠÃ": 717,
      "el": 718,
      "Ġmáº·t": 719,
      "ĠtÃ³c": 720,
      "Å©": 721,
      "ĠchÃº": 722,
      "Ġthuá»Ļc": 723,
      "ĠTuy": 724,
      "ĠhÆ°Æ¡ng": 725,
      "ĠÄĳeo": 726,
      "iá»ĩc": 727,
      "Ġcá»Ńa": 728,
      "¯c": 729,
      "ĠchuyÃªn": 730,
      "áº¥u": 731,
      "Ġphá»ķ": 732,
      "ĠÄĳÆ¡n": 733,
      "ĠCháº¥t": 734,
      "ĠthÆ°á»Ľc": 735,
      "Ġdung": 736,
      "Ġmay": 737,
      "ĠÄĳá»±ng": 738,
      "Ġbiáº¿t": 739,
      "Ġtheo": 740,
      "Ġcáº£m": 741,
      "Ã¡n": 742,
      "Ġdáº¡ng": 743,
      "Ġso": 744,
      "Ġtá»±": 745,
      "ĠlÃ³t": 746,
      "ĠÄĳiá»ģu": 747,
      "á»ĳc": 748,
      "Ġcháº¿": 749,
      "áº¯ng": 750,
      "ĠgÃ¢y": 751,
      "ĠU": 752,
      "Ã²ng": 753,
      "Ã¨n": 754,
      "Ġ3": 755,
      "Ġáº£nh": 756,
      "ap": 757,
      "Ġcháº¯c": 758,
      "ĠlÆ°u": 759,
      "ĠtÃŃch": 760,
      "Ġnay": 761,
      "ĠÄĳáº·c": 762,
      "uyá»ĩ": 763,
      "Ġquáº£": 764,
      "ĠÄĳáº§u": 765,
      "Ã¡i": 766,
      "ĠNgoÃłi": 767,
      "ĠSáº£n": 768,
      "ĠdÃłng": 769,
      "Ġlá»ĭch": 770,
      "Ġan": 771,
      "Ġkhá»ı": 772,
      "Ġxem": 773,
      "ÃŃch": 774,
      "ĠÄĲÃ¢y": 775,
      "ĠlÃ½": 776,
      "Ġsá»©c": 777,
      "Ġtinh": 778,
      "ĠÄĳa": 779,
      "ĠmÃ¡t": 780,
      "ĠÄĳá»ģu": 781,
      "Æ°á»Ł": 782,
      "ĠdÃ©p": 783,
      "Ġgiáº·t": 784,
      "Ã¡t": 785,
      "ĠÄĳá»ĭ": 786,
      "áºŃp": 787,
      "Ġná»ĵi": 788,
      "Æ°á»Ľng": 789,
      "ĠQu": 790,
      "ĠÃģ": 791,
      "Ġsá»¯a": 792,
      "Ńt": 793,
      "Ġkim": 794,
      "Ġpin": 795,
      "iá»ĩm": 796,
      "ĭu": 797,
      "Ã´n": 798,
      "Ġcá»ķ": 799,
      "ĠchÃ¢n": 800,
      "áº¥m": 801,
      "ĠkÃŃnh": 802,
      "Ãłm": 803,
      "Ġdáº§u": 804,
      "Ġcá»©ng": 805,
      "Ġtin": 806,
      "Ġkáº¿t": 807,
      "Ġnáº¥u": 808,
      "ÃŃt": 809,
      "Ġhá»Ļ": 810,
      "ĠthoÃ¡ng": 811,
      "Æ°á»¡ng": 812,
      "uá»": 813,
      "Ġgiáº£n": 814,
      "le": 815,
      "ro": 816,
      "ĠváºŃt": 817,
      "Ġthá»©c": 818,
      "Ġháº¡n": 819,
      "Ġsáº¡c": 820,
      "ĠÃģo": 821,
      "Ġlau": 822,
      ",...": 823,
      "ĠcÃ¢y": 824,
      "Ĺi": 825,
      "Ġtháº¥m": 826,
      "ĠkhÃ´": 827,
      "ton": 828,
      "Ġchá»©a": 829,
      "Äĥm": 830,
      "ĠW": 831,
      "Ġmang": 832,
      "á»ĵn": 833,
      "áº«n": 834,
      "ĠcÃ¢n": 835,
      "Æ°a": 836,
      "at": 837,
      "Ġ(": 838,
      "ĠLoáº¡i": 839,
      "Ġcu": 840,
      "ıng": 841,
      "ĠlÃªn": 842,
      "ĠÄĳÃ´i": 843,
      "á»Ļi": 844,
      "ĠCh": 845,
      "Ġgiá»Ľi": 846,
      "Ġphong": 847,
      "iá»ĥn": 848,
      "uá»ķi": 849,
      "Ġthanh": 850,
      "Ġquan": 851,
      "ĠtÃ¡c": 852,
      "ia": 853,
      "ĠmÃ¹": 854,
      "Ġrá»": 855,
      "Æ°á»Ľi": 856,
      "Ġbáº£n": 857,
      "TÃ´i": 858,
      "Ġtáº¿": 859,
      "ĠÄĳÆ°á»Ŀng": 860,
      "ĠÄĳÃ¢y": 861,
      "Ãµ": 862,
      "top": 863,
      "Ġngá»§": 864,
      "áº¥n": 865,
      "ĠÄĳá»ĭnh": 866,
      "ĠdÆ°á»¡ng": 867,
      "ĠF": 868,
      "ĠbÃ©": 869,
      "Ġhá»į": 870,
      "ĠÆ°u": 871,
      "áº£ng": 872,
      "ĠtÃ¢": 873,
      "Ġnhá»±a": 874,
      "Ġtiá»ĩn": 875,
      "Ġkiá»ĥm": 876,
      "Ġmáº¯t": 877,
      "Ġquáº£n": 878,
      "Ġnhanh": 879,
      "ĠphÃ¢n": 880,
      "Ġviá»ĩc": 881,
      "ĠÄĲá»Ļ": 882,
      "Ġmáº·c": 883,
      "ck": 884,
      "ĠchÄĥng": 885,
      "Ġsang": 886,
      "áº¯m": 887,
      "ĠcÃ²n": 888,
      "Ġxay": 889,
      "Ġgá»Ĺ": 890,
      "ÃŃnh": 891,
      "ĠkhoÃ¡c": 892,
      "ĠX": 893,
      "Ġtá»Ń": 894,
      "us": 895,
      "ĠÄĳÃ¨n": 896,
      "Ġdi": 897,
      "Ġquy": 898,
      "ĠÄĳÃ¬nh": 899,
      "Ġchá»ĭu": 900,
      "áº¿t": 901,
      "Ġhoáº¡t": 902,
      "iv": 903,
      "ĠkhÃ": 904,
      "Ġgiáº¥y": 905,
      "Ã¢m": 906,
      "Ġkhá»ıe": 907,
      "Ġgiá»¯": 908,
      "Ġráº»": 909,
      "ĠnÃ³n": 910,
      "ĠhÃłnh": 911,
      "uyá»ĩn": 912,
      "Æ°ng": 913,
      "³ng": 914,
      "ĠO": 915,
      "ĠtÃ¹": 916,
      "¥c": 917,
      "ĠsÃ¡ng": 918,
      "Ġnghá»": 919,
      "uyá»ģn": 920,
      "Ãło": 921,
      "Ġláº¡i": 922,
      "Ġbá»¥": 923,
      "áº¿n": 924,
      "Ġvi": 925,
      "Ġtrung": 926,
      "ĠngÄĥn": 927,
      "aptop": 928,
      "ĠtÃ¹y": 929,
      "Ġcung": 930,
      "Ġhá»Ļp": 931,
      "Ġrá»Ļng": 932,
      "otton": 933,
      "Ġká»¹": 934,
      "ĠbÃ¡n": 935,
      "ĠÄĳÃ¡p": 936,
      "Ġmáº¡nh": 937,
      "Ġbá»Ļt": 938,
      "ĠxuyÃªn": 939,
      "ĠcÃłng": 940,
      "Ġlá»įc": 941,
      "ter": 942,
      "Ġhá»įa": 943,
      "Ġgá»įn": 944,
      "is": 945,
      "ĠchÃ©": 946,
      "Ġthiá»ĩu": 947,
      "á»ĳng": 948,
      "ĠbÃºt": 949,
      "Ġáº¥m": 950,
      "et": 951,
      "¯u": 952,
      "ĠtrÃ¬nh": 953,
      "Ãºi": 954,
      "ĠÄĳÃ³": 955,
      "Ġem": 956,
      "Ġxá»": 957,
      "Ġnghá»ĩ": 958,
      "oo": 959,
      "Ġcá»¥": 960,
      "Ġkhu": 961,
      "un": 962,
      "ĠÄĲá»ĵ": 963,
      "ĠhÃ£": 964,
      "Ġnáº¿u": 965,
      "Ġ4": 966,
      "Ġcuá»ĳn": 967,
      "Ġnháº¯c": 968,
      "Ġláº¡nh": 969,
      "ĠxÃ¡ch": 970,
      "Ġtuá»ķi": 971,
      "Ġcotton": 972,
      "Ġlaptop": 973,
      "ĠmÅ©": 974,
      "Ġdao": 975,
      "Ġsu": 976,
      "Ġ5": 977,
      "Ńn": 978,
      "áº¯n": 979,
      "ĠVá»": 980,
      "ĠmÃ¹i": 981,
      "Ġchuy": 982,
      "ĠmÃłn": 983,
      "ĠkhÃŃ": 984,
      "Ġtá»ĳc": 985,
      "ĠváºŃy": 986,
      "ki": 987,
      "©p": 988,
      "Ġáº": 989,
      "Ġthun": 990,
      "ĠsÆ¡": 991,
      "ĠthÃª": 992,
      "om": 993,
      "ĠÄĳá»Ļc": 994,
      "ĠvÃ¬": 995,
      "ĠI": 996,
      "Ã©o": 997,
      "Ġkinh": 998,
      "os": 999,
      "ĠTÃºi": 1000,
      "Ġtiáº¿p": 1001,
      "ĠVáºŃy": 1002,
      "di": 1003,
      "Ġá»ķ": 1004,
      "Ġj": 1005,
      "ĠcÃ¡p": 1006,
      "ĠtrÃ¡nh": 1007,
      "ĠvÃłi": 1008,
      "ĠhÃ´": 1009,
      "ĠThÆ°Æ¡ng": 1010,
      "Ġtrá»±c": 1011,
      "ĠthÃªm": 1012,
      "Ġsáº¡ch": 1013,
      "Ġtai": 1014,
      "Æ°á»Łng": 1015,
      "iá»ĩp": 1016,
      "Ġquáº¡t": 1017,
      "ĠSá»": 1018,
      "įt": 1019,
      "Ġhoa": 1020,
      "ĠngÃły": 1021,
      "uá»ĵn": 1022,
      "áº·ng": 1023,
      "ĠKhi": 1024,
      "ĠÃ¢m": 1025,
      "ĠxÃ©t": 1026,
      "Ġtháº¥y": 1027,
      "Ġthao": 1028,
      "Ġbá»¥i": 1029,
      "ĊĠ": 1030,
      "li": 1031,
      "ĠvÄĥn": 1032,
      "Ġthoáº¡i": 1033,
      "Ġchá»©c": 1034,
      "ĠNÆ°á»Ľc": 1035,
      "Ġáº©m": 1036,
      "ĠThiáº¿t": 1037,
      "ĠnhÃ¢n": 1038,
      "ivi": 1039,
      "ĠKiá»ĥm": 1040,
      "Ġváº¥n": 1041,
      "Ġkiá»ĩm": 1042,
      "ote": 1043,
      "Ġnghe": 1044,
      "ĠhÃ´i": 1045,
      "ad": 1046,
      "Ġbiá»ĩt": 1047,
      "ĠphÃŃ": 1048,
      "ĠGiÃły": 1049,
      "ĠtrÆ°á»Ľc": 1050,
      "ĠThá»": 1051,
      "**:": 1052,
      "Ġcháº³ng": 1053,
      "ĠÆ°a": 1054,
      "ĠÄĳáº¡i": 1055,
      "ĠquÃł": 1056,
      "Ġphá»¥c": 1057,
      "Ġhai": 1058,
      "á»ĥn": 1059,
      "ĠÃ¡p": 1060,
      "ĠbÃ¡nh": 1061,
      "ĠnÆ°á»Ľng": 1062,
      "Ġbá»ī": 1063,
      "iÃªng": 1064,
      "ĠrÃµ": 1065,
      "ĠkhÃ¡ch": 1066,
      "ĠchÃºng": 1067,
      "Ãłu": 1068,
      "iá»ģn": 1069,
      "Ãªu": 1070,
      "ĠhÃ³a": 1071,
      "Ġchuá»Ļng": 1072,
      "ĠmÅ©i": 1073,
      "ean": 1074,
      "Ġmá»Ľi": 1075,
      "Ġtrá»£": 1076,
      "áº¡c": 1077,
      "áº·n": 1078,
      "Ġthá»§": 1079,
      "ĠÄĳÃ¢u": 1080,
      "Ġgam": 1081,
      "ac": 1082,
      "Ġthá»ĳng": 1083,
      "ĠngoÃłi": 1084,
      "Ġlá»£i": 1085,
      "£n": 1086,
      "ĠkÃ©o": 1087,
      "Ġchuyá»ĥn": 1088,
      "Ġrá»Ńa": 1089,
      "Ġnáº¯ng": 1090,
      "háº¿": 1091,
      "Ġtá»§": 1092,
      "ĠlÃ¢u": 1093,
      "Ġháº¡i": 1094,
      "ĠvÃŃ": 1095,
      "Ġminh": 1096,
      "ĠÄĲá»ĳi": 1097,
      "ĠkhÃ³a": 1098,
      "Ġnguá»ĵn": 1099,
      "áº§y": 1100,
      "ĠbÃ¬nh": 1101,
      "Ġgá»ī": 1102,
      "ĠtÆ°Æ¡ng": 1103,
      "Ġhá»Ĺ": 1104,
      "Ġtáº¯m": 1105,
      "ĠriÃªng": 1106,
      "ĠgiÃ¡c": 1107,
      "ĠLÃłm": 1108,
      "ĠÄĳá»įc": 1109,
      "ĠtÆ°": 1110,
      "ĠÄĳÃ£": 1111,
      "alo": 1112,
      "Ġjean": 1113,
      "ĠMá»": 1114,
      "Ãºng": 1115,
      "Ġchi": 1116,
      "ĠÄĳáºŃ": 1117,
      "Ġhá»ĩ": 1118,
      "ĠNh": 1119,
      "Ġháº¡t": 1120,
      "iáº¿ng": 1121,
      "Ġnghiá»ĩp": 1122,
      "oa": 1123,
      "Ġnháº¡": 1124,
      "ĠtrÃŃ": 1125,
      "Ġtruyá»ģn": 1126,
      "Ġgiáº£": 1127,
      "áº¯p": 1128,
      "ĠQuáº§n": 1129,
      "Ġngáº¯n": 1130,
      "ĠUS": 1131,
      "iáº¿m": 1132,
      "ĠtÃ¢m": 1133,
      "Ġcáº§m": 1134,
      "ĠCÃ´ng": 1135,
      "Ġgame": 1136,
      "ÄĲ": 1137,
      "lu": 1138,
      "¬n": 1139,
      "Ġthiá»ĩn": 1140,
      "Ġtá»ķ": 1141,
      "Ġgiáº£i": 1142,
      "eb": 1143,
      "uá»ĳng": 1144,
      "Ġkiáº¿m": 1145,
      "ĠÄĳá»§": 1146,
      "ĠBá»Ļ": 1147,
      "ĠtháºŃt": 1148,
      "Ġgiá»¯a": 1149,
      "ort": 1150,
      "Ġdáº«n": 1151,
      "Ġchá»īnh": 1152,
      "ĠlÆ°á»Ŀi": 1153,
      "ĠKiá»ĥu": 1154,
      "ĠnÃ³ng": 1155,
      "ali": 1156,
      "áºŃn": 1157,
      "Ġchuáº©n": 1158,
      "£o": 1159,
      "ĠmÃ´i": 1160,
      "Ġná»ĳi": 1161,
      "ĠmÃ³n": 1162,
      "ĠnguyÃªn": 1163,
      "ĠtrÃ¡i": 1164,
      "ĠcÆ¡m": 1165,
      "tr": 1166,
      "ĠlÃ´ng": 1167,
      "ĠgÃ³t": 1168,
      "Ġtreo": 1169,
      "Ġgiáº£m": 1170,
      "ĠUSB": 1171,
      "ĠhoÃłn": 1172,
      "ĠyÃªu": 1173,
      "il": 1174,
      "ĠchÃ³": 1175,
      "ĠChÃ": 1176,
      "Ġmi": 1177,
      "Ġkhoáº£ng": 1178,
      "ĠtáºŃp": 1179,
      "Ġ6": 1180,
      "Æ¡m": 1181,
      "Ã¨o": 1182,
      "¥p": 1183,
      "Ġtháº¥p": 1184,
      "ĠÃŃt": 1185,
      "Ġtruyá»ĩn": 1186,
      "Ġhá»ıng": 1187,
      "ĠvÃ²ng": 1188,
      "Ġmá»ĵ": 1189,
      "ps": 1190,
      "ĠÄĳáº§m": 1191,
      "Ġtuy": 1192,
      "Ġmá»¥c": 1193,
      "ĠAnh": 1194,
      "Ä©": 1195,
      "ĠÃ¡nh": 1196,
      "ĠnÆ¡i": 1197,
      "ĠChá»": 1198,
      "ĠJ": 1199,
      "Ġdá»ĭ": 1200,
      "ur": 1201,
      "Ġw": 1202,
      "Ġlen": 1203,
      "ĠxÃ¡c": 1204,
      "Ġuá»ĳng": 1205,
      "ĠKh": 1206,
      "Ġhiá»ĥu": 1207,
      "ock": 1208,
      "ĠsÃłn": 1209,
      "Ġsao": 1210,
      "Æ°Æ¡i": 1211,
      "ĠhÆ°á»Ľng": 1212,
      "ĠtÆ°Æ¡i": 1213,
      "ĠthÆ¡m": 1214,
      "Ġquai": 1215,
      "ĠSh": 1216,
      "Ġtráº¯ng": 1217,
      "Ġcon": 1218,
      "ĠlÆ°ng": 1219,
      "ĠÄĳá»ģ": 1220,
      "anas": 1221,
      "Ã¡m": 1222,
      "ĠnÃ³": 1223,
      "Ġá»§": 1224,
      "Ġchua": 1225,
      "Ġká»ĩ": 1226,
      "Ġná»Ļi": 1227,
      "ĠÄĳen": 1228,
      "ĠÄĳÃŃch": 1229,
      "ĠvÃ¡y": 1230,
      "Ġdu": 1231,
      "Ãºc": 1232,
      "Æ°á»£t": 1233,
      "Ġváº«n": 1234,
      "Æ°á»£u": 1235,
      "ĠkhÄĥn": 1236,
      "Ġphá»ĳ": 1237,
      "ĠrÃłng": 1238,
      "Æ°á»Łi": 1239,
      "ĠhÃ£y": 1240,
      "aki": 1241,
      "Ġgas": 1242,
      "Ġkhuáº©n": 1243,
      "Ġtriá»ĩu": 1244,
      "ĠtÄĥng": 1245,
      "ĠdÃły": 1246,
      "Æ°á»¡i": 1247,
      "ED": 1248,
      "ĠvÃłng": 1249,
      "Ġdá»±a": 1250,
      "Ġtáº£n": 1251,
      "áº©y": 1252,
      "Ã£y": 1253,
      "onic": 1254,
      "oot": 1255,
      "¥a": 1256,
      "ĠÄĳá»ĳi": 1257,
      "Ġdo": 1258,
      "ĠNá»ĵi": 1259,
      "Ġsáº¥y": 1260,
      "Ġká»ĥ": 1261,
      "ĠthÃ¢n": 1262,
      "ĠphÃŃm": 1263,
      "Ġá»§i": 1264,
      "ĠnhÆ°á»£c": 1265,
      "Ġná»ī": 1266,
      "ĠsÆ°á»Łi": 1267,
      "ĠTrong": 1268,
      "Ġweb": 1269,
      "Ġthay": 1270,
      "est": 1271,
      "ĠÄĳÃºng": 1272,
      "ĠbÃ¬": 1273,
      "ĠkhÃ³": 1274,
      "Ġgiá»Ŀ": 1275,
      "Ä©a": 1276,
      "Ġanh": 1277,
      "Ġtivi": 1278,
      "Ġlá»±c": 1279,
      "ĠtiÃªn": 1280,
      "if": 1281,
      "Ġtote": 1282,
      "Ġháº¥p": 1283,
      "Ġ+": 1284,
      "Ġkaki": 1285,
      "Ġchiáº¿u": 1286,
      "ĠhÆ¡i": 1287,
      "Ġlá»¥a": 1288,
      "ĠĊ": 1289,
      "ĠmÃ¨o": 1290,
      "ĠNÃªn": 1291,
      "Ġhá»¯u": 1292,
      "Ġtá»ķng": 1293,
      "ĠÄĲÆ°á»Ŀng": 1294,
      "ĠtÃ¬nh": 1295,
      "Ġlu": 1296,
      "ĠBáº¿p": 1297,
      "ĠSu": 1298,
      "ĠKhÃ´ng": 1299,
      "ħn": 1300,
      "Ġngá»įt": 1301,
      "ĠlÃŃt": 1302,
      "ĠbáºŃt": 1303,
      "ĠnhÃłng": 1304,
      "Ġkhoa": 1305,
      "ĠcÃłi": 1306,
      "ĠÄĳÃ¡": 1307,
      "Ġcar": 1308,
      "ĠviÃªn": 1309,
      "ag": 1310,
      "ing": 1311,
      "ıi": 1312,
      "ĠlÆ°á»¡i": 1313,
      "Ġvu": 1314,
      "and": 1315,
      "ĠthÃ©p": 1316,
      "Ã²i": 1317,
      "ĠHD": 1318,
      "áº¡p": 1319,
      "áº¡ch": 1320,
      "Æ¯u": 1321,
      "Ġco": 1322,
      "á»ĵng": 1323,
      "Ġtáº·ng": 1324,
      "Ġdinh": 1325,
      "ĠSÃ¡ch": 1326,
      "Ġhá»ĵng": 1327,
      "Ġlá»Ľp": 1328,
      "Ġvali": 1329,
      "ĠchÃ©o": 1330,
      "ĠcÃ¹ng": 1331,
      "Ġtá»ī": 1332,
      "ams": 1333,
      "Ġmá»©c": 1334,
      "ĠÄĲá»": 1335,
      "ĠtÃ¢y": 1336,
      "ous": 1337,
      "Ġdá»¯": 1338,
      "Łi": 1339,
      "Ġtáº©y": 1340,
      "og": 1341,
      "Ġtiá»ģn": 1342,
      "ĠÄĳÃ´ng": 1343,
      "ĠHÃ£y": 1344,
      "ĠAn": 1345,
      "ĠhÆ°á»Łng": 1346,
      "Ã£n": 1347,
      "ĠchÃło": 1348,
      "ĠNÃ³": 1349,
      "ĠnháºŃn": 1350,
      "Ġrá»ĵi": 1351,
      "Ġcáº£nh": 1352,
      "anasonic": 1353,
      "ĠÄĳáº·t": 1354,
      "Ġdiá»ĩt": 1355,
      "Ġtranh": 1356,
      "Ġthá»į": 1357,
      "ĠlÃ²": 1358,
      "Ġtrai": 1359,
      "50": 1360,
      "á»ĳt": 1361,
      "Ġxanh": 1362,
      "ĠDÆ°á»Ľi": 1363,
      "ĠchÃ©n": 1364,
      "Ġthá»§y": 1365,
      "Ġjeans": 1366,
      "Ġgáº¡o": 1367,
      "ĠSá»¯a": 1368,
      "ouse": 1369,
      "ĠbÃªn": 1370,
      "ĠCháº¯c": 1371,
      "icro": 1372,
      "ĠÃ´": 1373,
      "Ġgá»ĳc": 1374,
      "Ġcáº¥u": 1375,
      "Ġhá»ĵi": 1376,
      "ĠsÃ³ng": 1377,
      "ĠÄĳáºŃu": 1378,
      "ĠgiÃ£n": 1379,
      "ĠSams": 1380,
      "ĠÄĳáº§y": 1381,
      "Ġmá»ıng": 1382,
      "Ġ10": 1383,
      "re": 1384,
      "yl": 1385,
      "Ġmiáº¿ng": 1386,
      "ĠnhiÃªu": 1387,
      "ĠngÃ¢n": 1388,
      "ĠphÃª": 1389,
      "ĠphÃ¡t": 1390,
      "ĠNháº": 1391,
      "Ġsá»ĳng": 1392,
      "uyá»ĩt": 1393,
      "ab": 1394,
      "az": 1395,
      "iáº¿c": 1396,
      "Ġmá»¹": 1397,
      "ĠDÃ¢y": 1398,
      "ĠPanasonic": 1399,
      "od": 1400,
      "Ġtrá»Ŀi": 1401,
      "ĠnhÃ¬n": 1402,
      "ig": 1403,
      "Ġcan": 1404,
      "ĠbÃ³ng": 1405,
      "ĠtrÃ¹ng": 1406,
      "Ġváº·n": 1407,
      "ĠsiÃªu": 1408,
      "Ġmá»±c": 1409,
      "ĠPh": 1410,
      "ĠChá»įn": 1411,
      "id": 1412,
      "Ġnhá»įn": 1413,
      "ĠVÃŃ": 1414,
      "ĠcÃł": 1415,
      "Ġngoáº¡i": 1416,
      "ĠDÃ©p": 1417,
      "ĠChiáº¿c": 1418,
      "©u": 1419,
      "Ã©m": 1420,
      "ĠkhuyÃªn": 1421,
      "ĠLá»": 1422,
      "Ġnghiá»ĩm": 1423,
      "ĠÆ¯u": 1424,
      "Ġngang": 1425,
      "Ġngon": 1426,
      "ĠÄĲÃ¨n": 1427,
      "Ġquyáº¿t": 1428,
      "ĠhÃ£ng": 1429,
      "Ġdiá»ĩn": 1430,
      "ĠÄĳiá»ĥn": 1431,
      "Ġká»³": 1432,
      "ox": 1433,
      "Ġtuyá»ĩt": 1434,
      "ĠsÃ³c": 1435,
      "ĠPro": 1436,
      "Ġtuyáº¿n": 1437,
      "Ġvest": 1438,
      "ĠÄĲÆ°á»£c": 1439,
      "ĠthuáºŃt": 1440,
      "ax": 1441,
      "Ġmáº½": 1442,
      "ĠmÃ£": 1443,
      "Ġbáº¯t": 1444,
      "ĠkÃ©m": 1445,
      "nhouse": 1446,
      "Ġ100": 1447,
      "áº©u": 1448,
      "ĠdÃŃnh": 1449,
      "Ġnhá»Ľ": 1450,
      "ĠRA": 1451,
      "ĩm": 1452,
      "ĠchÄĥm": 1453,
      "hili": 1454,
      "Ġbáº©n": 1455,
      "Ġráº±ng": 1456,
      "Ġkhá»ıi": 1457,
      "ĠÄĲá»ĵng": 1458,
      "ĠBÃłn": 1459,
      "ine": 1460,
      "Ġtrá»¯": 1461,
      "olu": 1462,
      "ĠIn": 1463,
      "Ġphá»ĳi": 1464,
      "ĠSunhouse": 1465,
      "ĠĠ": 1466,
      "ĠtÃłi": 1467,
      "ĠDá»": 1468,
      "Ãµi": 1469,
      "¯t": 1470,
      "įi": 1471,
      "ĠnÄĥm": 1472,
      "Ġláº©u": 1473,
      "Ġbá»ı": 1474,
      "ĠNÃ³n": 1475,
      "Ġnháº¡y": 1476,
      "Ġcáº¯t": 1477,
      "ĠCu": 1478,
      "ĠPhili": 1479,
      "ĠvÃ³c": 1480,
      "Ġsá»£i": 1481,
      "ĠKÃŃch": 1482,
      "Ã¢ng": 1483,
      "),": 1484,
      "20": 1485,
      "ĠSamsung": 1486,
      "ĠRAM": 1487,
      "vas": 1488,
      "Ġgháº¿": 1489,
      "Ġthá»Ń": 1490,
      "Ġvá»¥": 1491,
      "lec": 1492,
      "ĠdÃłnh": 1493,
      "ĠkhÃ¡": 1494,
      "ĠBÃºt": 1495,
      "Ġtháº¥t": 1496,
      "ĠÄĳÃ¡o": 1497,
      "Ġláº§n": 1498,
      "ĠtrÃ²n": 1499,
      "Ãªm": 1500,
      "Ġvá»Ŀi": 1501,
      "ate": 1502,
      "ee": 1503,
      "Ġtáº¥t": 1504,
      "ĠgiÃ³": 1505,
      "ĠVáº£i": 1506,
      "Ġmá»Ĺi": 1507,
      "ite": 1508,
      "gan": 1509,
      "ĠmÃ¬": 1510,
      "Ġbá»ģ": 1511,
      "ĠMÃłu": 1512,
      "ĠVá»Ľi": 1513,
      "um": 1514,
      "ĠsÃ¢u": 1515,
      "Ġ8": 1516,
      "ĠÆ¡n": 1517,
      "Ġá»ĵn": 1518,
      "Ġtiá»ĥu": 1519,
      "Ġkem": 1520,
      "Ġgá»įng": 1521,
      "ĠnÃ©t": 1522,
      "Ġpháº£n": 1523,
      "Ġtiá»ĩc": 1524,
      "Ġdá»¥c": 1525,
      "Ġtrá»Ł": 1526,
      "lectr": 1527,
      "ĠÃ©p": 1528,
      "á»ĩ": 1529,
      "ĠbÃª": 1530,
      "ĠrÄĥng": 1531,
      "ĠChÃº": 1532,
      "Ġnáº·ng": 1533,
      "ĠbÃ´ng": 1534,
      "Ġgá»ĳi": 1535,
      "Ġtrá»ĭ": 1536,
      "SD": 1537,
      "chá»": 1538,
      "ĠÄĳá»©ng": 1539,
      "Ġlá»Ĺi": 1540,
      "Ġháº¹": 1541,
      "ĵn": 1542,
      "ĠtÆ°á»£ng": 1543,
      "Ġtháº©m": 1544,
      "Ġtá»«ng": 1545,
      "ik": 1546,
      "Ġsá»ķ": 1547,
      "Ġbá»Łi": 1548,
      "ĠPhilips": 1549,
      "Ġvá»Ľ": 1550,
      "Ġbá»ķ": 1551,
      "chá»ĭ": 1552,
      "10": 1553,
      "ĠÃŃch": 1554,
      "ĠtrÆ¡n": 1555,
      "Ġtá»ĳi": 1556,
      "ĠElectr": 1557,
      "Ġba": 1558,
      "ĠthÃº": 1559,
      "Ġdoanh": 1560,
      "ber": 1561,
      "hÃ´m": 1562,
      "ĠCáº£m": 1563,
      "ĊĠĠĠ": 1564,
      "olux": 1565,
      "'s": 1566,
      "Ġváº»": 1567,
      "Ġboot": 1568,
      "ĠhÆ°": 1569,
      "ĠÄĳá»ı": 1570,
      "Ġbá»ĩ": 1571,
      "iti": 1572,
      "te": 1573,
      "Ġdáº¡": 1574,
      "Ã¹y": 1575,
      "ĠMá»Ĺi": 1576,
      "LÃłm": 1577,
      "Ġqua": 1578,
      "ĠBao": 1579,
      "ĠDung": 1580,
      "Ġpha": 1581,
      "ĠkhuÃ´n": 1582,
      "ĠY": 1583,
      "ĠTÃ¹y": 1584,
      "ĠNháºŃt": 1585,
      "Ġcanvas": 1586,
      "Xin": 1587,
      "ack": 1588,
      "digan": 1589,
      "Ä©nh": 1590,
      "ĠÃ´m": 1591,
      "Th": 1592,
      "ak": 1593,
      "oc": 1594,
      "Ã£i": 1595,
      "ĠnhÃ´m": 1596,
      "Ġchiá»ģu": 1597,
      "Ġcáº£i": 1598,
      "Ġláº¯p": 1599,
      "ĠElectrolux": 1600,
      "ĠlÃłn": 1601,
      "Ġxu": 1602,
      "Ġcardigan": 1603,
      "ĠÄĳá»¡": 1604,
      "ĠPhÃ": 1605,
      "ĠXin": 1606,
      "ĠnÃ¢ng": 1607,
      "áº·p": 1608,
      "Ġmá»ī": 1609,
      "ĠÄĳÃłn": 1610,
      "há»¥": 1611,
      "ĠTáº¥t": 1612,
      "ĠgiÃ¡o": 1613,
      "ĠluÃ´n": 1614,
      "60": 1615,
      "Ġkiáº¿n": 1616,
      "Ġcháº£o": 1617,
      "Ġdá»ĭp": 1618,
      "Ġboots": 1619,
      "ĠBáº£n": 1620,
      "Ġtháº¯t": 1621,
      "ou": 1622,
      "¥n": 1623,
      "ĠBlu": 1624,
      "Ġinch": 1625,
      "ĠbÃºp": 1626,
      "Ġvang": 1627,
      "ĠbÆ¡i": 1628,
      "Ġbáº¡c": 1629,
      "ed": 1630,
      "Ġ7": 1631,
      "Ġtáº¡p": 1632,
      "ĠsÆ¡n": 1633,
      "ĠnhÃ£n": 1634,
      "ent": 1635,
      "ada": 1636,
      "ĠphÃ©p": 1637,
      "ĠquÃ©t": 1638,
      "angar": 1639,
      "Ġsá»Ńa": 1640,
      "ark": 1641,
      "ook": 1642,
      "angaroo": 1643,
      "ĠÄĳÃ´": 1644,
      "Ġchay": 1645,
      "Ġchuyá»ģn": 1646,
      "ĠTá»": 1647,
      "ĠTÃŃnh": 1648,
      "ĠTivi": 1649,
      "ir": 1650,
      "ĠcÆ°á»Ŀng": 1651,
      "Ġcam": 1652,
      "Ġxá»©": 1653,
      "ifi": 1654,
      "ĠdÆ°á»Ľi": 1655,
      "áº¥p": 1656,
      "ĠKangaroo": 1657,
      "one": 1658,
      "ĠÄĳá»ĩm": 1659,
      "Æ°á»Ľt": 1660,
      "ini": 1661,
      "áº¯c": 1662,
      "ĠchÃ¹": 1663,
      "ĠVN": 1664,
      "Ġ30": 1665,
      "ĠQuáº¡t": 1666,
      "Ġxá»Ń": 1667,
      "ĠliÃªn": 1668,
      "Ġsh": 1669,
      "ĠbÃ¡o": 1670,
      "ĠTi": 1671,
      "ĠSSD": 1672,
      "ĠmÃ¹a": 1673,
      "©t": 1674,
      "Ġnáº¯p": 1675,
      "ĠbÃ²": 1676,
      "Ġbalo": 1677,
      "ĠdÃ²ng": 1678,
      "Ġpol": 1679,
      "ĠxÆ°á»Ľc": 1680,
      "Ġloa": 1681,
      "Ġvai": 1682,
      "ĠsÃ¡t": 1683,
      "Ġthá»ĭt": 1684,
      "ester": 1685,
      "ll": 1686,
      "Ġmicro": 1687,
      "Ġchung": 1688,
      "ĠCá»": 1689,
      "ĠPhá»¥": 1690,
      "LED": 1691,
      "ĠrÆ°á»£u": 1692,
      "ĠBalo": 1693,
      "Ġtháº£": 1694,
      "ĠWifi": 1695,
      "ĠÄĳÃ¡ng": 1696,
      "Ġbia": 1697,
      "ĠÄĳá»ķi": 1698,
      "Ġvá»±c": 1699,
      "Ġchá»ĭ": 1700,
      "Ġmá»įi": 1701,
      "ĠRÆ°á»£u": 1702,
      "pp": 1703,
      "ĠtÆ°á»Ŀng": 1704,
      "á»Ļn": 1705,
      ").": 1706,
      "Ġf": 1707,
      "ĠÄĳÃ³ng": 1708,
      "Ġsá»©": 1709,
      "ĠNá»Ļi": 1710,
      "Ġbáº£ng": 1711,
      "Ġthá»«a": 1712,
      "Ġche": 1713,
      "Ġmáº¹": 1714,
      "Ġcháº¡": 1715,
      "Ġdá»ĭu": 1716,
      "ĠrÃ¡o": 1717,
      "ĠZ": 1718,
      "Ġcáº¡o": 1719,
      "GB": 1720,
      "av": 1721,
      "ow": 1722,
      "Ġtráº¡ng": 1723,
      "uyáº¿t": 1724,
      "Ġphai": 1725,
      "ell": 1726,
      "ĠShop": 1727,
      "Ġshort": 1728,
      "ĠtrÃ´ng": 1729,
      "Ġxáº£": 1730,
      "ĠLED": 1731,
      "ylon": 1732,
      "ĠÄĳau": 1733,
      "Ġmáº¡ch": 1734,
      "Ġhá»ıi": 1735,
      "Ġdá»±": 1736,
      "ĠÄĳáºŃm": 1737,
      "ĠTiki": 1738,
      "ĠcÃ´n": 1739,
      "ĠnÆ¡": 1740,
      "ĠsÃ¡nh": 1741,
      "hÃ¬n": 1742,
      "ĠTrá»": 1743,
      "Ġáº¥n": 1744,
      "ĠchÃ³ng": 1745,
      "ĠVNÄĲ": 1746,
      "80": 1747,
      "Ġva": 1748,
      "Ġbi": 1749,
      "ĠgÃ³c": 1750,
      "ĠCan": 1751,
      "ĠBos": 1752,
      "Ġsá»ĳc": 1753,
      "ef": 1754,
      "ĠtÆ°á»Łng": 1755,
      "ĠbÃłi": 1756,
      "ĠrÃ¡ch": 1757,
      "ĠnháºŃt": 1758,
      "Ġháº¹n": 1759,
      "ĠchÃ¹i": 1760,
      "ĠquÃ½": 1761,
      "ĠThÃłnh": 1762,
      "Ġkhoan": 1763,
      "ĠChÃºng": 1764,
      "ĠcáºŃp": 1765,
      "Ġsand": 1766,
      "iá»ħn": 1767,
      "Ġmá»Ł": 1768,
      "ĠAr": 1769,
      "ion": 1770,
      "¥m": 1771,
      "Ġviáº¿t": 1772,
      "ĠvÃ¢n": 1773,
      "ĠvÃ²i": 1774,
      "amin": 1775,
      "Ġ500": 1776,
      "line": 1777,
      "ĠÄĳÃŃnh": 1778,
      "Ġmen": 1779,
      "ĠSt": 1780,
      "azada": 1781,
      "ex": 1782,
      "ĠÆ°á»Ľt": 1783,
      "Ġtriá»ĥn": 1784,
      "Ġtráº§y": 1785,
      "Ġ12": 1786,
      "uyá»ħn": 1787,
      "Ã¨m": 1788,
      "lut": 1789,
      "ĠHDD": 1790,
      "ĠShopee": 1791,
      "Ġchia": 1792,
      "ĠLazada": 1793,
      "ĠvÃłnh": 1794,
      "ĠDáº§u": 1795,
      "ĠTheo": 1796,
      "ĠTrÃ¡nh": 1797,
      "ĠNhÆ°á»£c": 1798,
      "Ġvui": 1799,
      "Ńp": 1800,
      "ĠcÆ°ng": 1801,
      "Ġhá»Ł": 1802,
      "ĠTháº¿": 1803,
      "Ġkhiá»ĥn": 1804,
      "ĠHu": 1805,
      "itamin": 1806,
      "ĠTháº": 1807,
      "Ġmá»ĭ": 1808,
      "ĠÄĳáºŃp": 1809,
      "Ġmáº¯m": 1810,
      "Ġdá»ĭch": 1811,
      "ĠnghÃ¬n": 1812,
      "ĠxÃºc": 1813,
      "ĠSen": 1814,
      "ĠVin": 1815,
      "Ġhá»Ļi": 1816,
      "Ġmá»ĭn": 1817,
      "eg": 1818,
      "ies": 1819,
      "ara": 1820,
      "ĠbÃ©o": 1821,
      "¿t": 1822,
      "Ġ...": 1823,
      "ĠÄĳáº¯t": 1824,
      "Ġlanh": 1825,
      "Ġmini": 1826,
      "Ġghi": 1827,
      "á»Ļp": 1828,
      "iáº¿u": 1829,
      "Ġchá»¯": 1830,
      "ĠvuÃ´ng": 1831,
      "Ġsandal": 1832,
      "lutch": 1833,
      "Ġ9": 1834,
      "Ġá»ĳng": 1835,
      "ĠlÄ©nh": 1836,
      "Ġgá»Ļi": 1837,
      "ĠthÆ°": 1838,
      "ĠhÃłm": 1839,
      "ĠgiÆ°á»Ŀng": 1840,
      "ĠBáº£o": 1841,
      "Ġkháº©u": 1842,
      "30": 1843,
      "500": 1844,
      "PS": 1845,
      "ĠváºŃn": 1846,
      "ĠnÃłnh": 1847,
      "Ġxe": 1848,
      "ĠrÅ©": 1849,
      "ĠchÃ¬": 1850,
      "arp": 1851,
      "iz": 1852,
      "ĠcÆ°á»Ľi": 1853,
      "Ġnylon": 1854,
      "ĠThÃ": 1855,
      "ĠngÃ³n": 1856,
      "ĠÄĳá»ĭa": 1857,
      "Lock": 1858,
      "af": 1859,
      "rote": 1860,
      "ĠnhÄĥn": 1861,
      "Ġcháº¥m": 1862,
      "Ġchá»§": 1863,
      "ĠpháºŃn": 1864,
      "Ġxo": 1865,
      "Ġphá»§": 1866,
      "Ġháº¿t": 1867,
      "Ġtiáº¿n": 1868,
      "Ġxá»ı": 1869,
      "ĠÄĳÄ©a": 1870,
      "Ġsung": 1871,
      "Ġtháº»": 1872,
      "ĠPin": 1873,
      "odi": 1874,
      "ĠbÃ¡m": 1875,
      "ĠdÃ¡n": 1876,
      "ĠtháºŃn": 1877,
      "ĠLock": 1878,
      "ĠhÃ²": 1879,
      "ob": 1880,
      "ĠcÃ´": 1881,
      "ĠÄĳo": 1882,
      "Ġcá»ĵn": 1883,
      "40": 1884,
      "Cháº": 1885,
      "ĠtÃªn": 1886,
      "ĠláºŃp": 1887,
      "ĠmÃ²n": 1888,
      "ĠUV": 1889,
      "Ġbá»¥ng": 1890,
      "ĠnÃ³i": 1891,
      "odie": 1892,
      "Ġ\"": 1893,
      "Ġcáº©n": 1894,
      "Ġty": 1895,
      "Ġbiá»ĥn": 1896,
      "Ġvá»ı": 1897,
      "ĠCÃ²n": 1898,
      "Ġhoodie": 1899,
      "Ġcá»ķng": 1900,
      "PU": 1901,
      "Ńm": 1902,
      "Ġvitamin": 1903,
      "Ġmáº£nh": 1904,
      "Æ°á»Ŀn": 1905,
      "Ġxáº£o": 1906,
      "ĠDa": 1907,
      "art": 1908,
      "Ġtháº£m": 1909,
      "yester": 1910,
      "ĠÄĳáº¡t": 1911,
      "ĠkÃ¨m": 1912,
      "ĠgÃ¡i": 1913,
      "ĠrÃ£i": 1914,
      "ĠMiáº¿ng": 1915,
      "ess": 1916,
      "co": 1917,
      "ua": 1918,
      "ĠlÃ²ng": 1919,
      "Ġbáº¥t": 1920,
      "ĠtrÃł": 1921,
      "Ġxa": 1922,
      "ĠSharp": 1923,
      "Ġi": 1924,
      "Ġlo": 1925,
      "Ġbom": 1926,
      "Cháº¥t": 1927,
      "Ġbomber": 1928,
      "±m": 1929,
      "ĠvÆ°á»Ŀn": 1930,
      "ers": 1931,
      "can": 1932,
      "Ġtia": 1933,
      "ĠlÃ¬": 1934,
      "ĠbÄĥng": 1935,
      "ĠdÆ°Æ¡ng": 1936,
      "Ġtráº£i": 1937,
      "á»ĳm": 1938,
      "ĠgiÃłu": 1939,
      "Ġkhá»Ń": 1940,
      "ĠhÃ²a": 1941,
      "io": 1942,
      "mi": 1943,
      "ĠlÃ´": 1944,
      "ĠlÃ£": 1945,
      "ĠlÃºc": 1946,
      "ĠlÃµi": 1947,
      "ĠtrÄĥm": 1948,
      "ĠxÃ¬": 1949,
      "Ġnháº¡c": 1950,
      "of": 1951,
      "Ġ&": 1952,
      "ĭt": 1953,
      "ĠtrÆ°á»£t": 1954,
      "ĠrÃ¡c": 1955,
      "ĠSe": 1956,
      "Ġ20": 1957,
      "Ġcuá»Ļc": 1958,
      "áº±m": 1959,
      "Ġcá»±c": 1960,
      "ĠÄĲáº¿": 1961,
      "Ġphá»Ł": 1962,
      "ĠNguyá»ħn": 1963,
      "ore": 1964,
      "ĠEl": 1965,
      "rotein": 1966,
      "«n": 1967,
      "ĠÃªm": 1968,
      "ĩt": 1969,
      "Ġthiáº¿u": 1970,
      "Ġgiao": 1971,
      "Ġthá»¥": 1972,
      "ĠBia": 1973,
      "ĠHÆ°Æ¡ng": 1974,
      "ĠkhoÃ¡ng": 1975,
      "Ġquyáº¿n": 1976,
      "Ġbá»ĩnh": 1977,
      "ht": 1978,
      "ĠrÃ¢u": 1979,
      "ĠBá»Ļt": 1980,
      "ĠBiti": 1981,
      "ĠMáº·t": 1982,
      "ĠHiá»ĩn": 1983,
      "ĠHá»Ļp": 1984,
      "Ġ15": 1985,
      "ĠUn": 1986,
      "Ġ*": 1987,
      "ĠÄĳÃł": 1988,
      "ĠÄĳáº¡c": 1989,
      "Ġláº»": 1990,
      "Ġren": 1991,
      "Ġbá»©c": 1992,
      "ĠSH": 1993,
      "ĠnháºŃp": 1994,
      "Ġ200": 1995,
      "ooth": 1996,
      "ov": 1997,
      "ĠcáºŃy": 1998,
      "Ġváº¯t": 1999,
      "Ġprotein": 2000,
      "ĠCáº£": 2001,
      "Ġnhá»Ŀ": 2002,
      "ĠBÃ¡nh": 2003,
      "ĠLong": 2004,
      "enim": 2005,
      "ĠThe": 2006,
      "Ġngá»«a": 2007,
      "ri": 2008,
      "¹ng": 2009,
      "Ġliá»ģn": 2010,
      "ĠvÃ¹ng": 2011,
      "ĠBÃ¡ch": 2012,
      "ĠphÃ¡p": 2013,
      "Ġngá»¯": 2014,
      "Ġngá»±c": 2015,
      "ĠBosch": 2016,
      "Ńu": 2017,
      "Ġluyá»ĩn": 2018,
      "Ġmáº¡ng": 2019,
      "Ġá»Ķ": 2020,
      "ĠHá»": 2021,
      "iÃªm": 2022,
      "ce": 2023,
      "lo": 2024,
      "st": 2025,
      "uÃ´i": 2026,
      "ĠÃ¡i": 2027,
      "ĠBá»": 2028,
      "ĠKá»ĩ": 2029,
      "etooth": 2030,
      "Ġsandals": 2031,
      "á»Ĺi": 2032,
      "ĠsÃ©t": 2033,
      "Ġgel": 2034,
      "ĠthiÃªn": 2035,
      "Ġchá»©ng": 2036,
      "Ġquá»ĳc": 2037,
      "ĠOn": 2038,
      "der": 2039,
      "«ng": 2040,
      "Äĳ": 2041,
      "Ġtáº£i": 2042,
      "Ġlinh": 2043,
      "Ġngáº¯t": 2044,
      "ĠthÃ¹ng": 2045,
      "Ġná»ģn": 2046,
      "ĠGá»": 2047,
      "ĠNhÃł": 2048,
      "ĠKhÄĥn": 2049,
      "Ġáº¡": 2050,
      "Ġcá»ĳ": 2051,
      "iá»ħ": 2052,
      "Ġquang": 2053,
      "ĠBr": 2054,
      "Ġkháº¯c": 2055,
      "ĠSá»Ń": 2056,
      "ĠbÃ¬a": 2057,
      "Ġtim": 2058,
      "ĠtÃ´n": 2059,
      "ĠlÆ°á»Ľi": 2060,
      "áº¡m": 2061,
      "ĠkhÃ¡ng": 2062,
      "ĠtÃ£": 2063,
      "Ġrau": 2064,
      "ĠsoÃ¡t": 2065,
      "ace": 2066,
      "Ġnhung": 2067,
      "ĠHoa": 2068,
      "Ġxuá»ĵng": 2069,
      "Ġcháº¡y": 2070,
      "ĠtrÃ²": 2071,
      "Ġkhe": 2072,
      "ĠxÆ¡": 2073,
      "Ġxáº¿p": 2074,
      "ĠnhÃ£": 2075,
      "ive": 2076,
      "ĠThá»©c": 2077,
      "ĠBluetooth": 2078,
      "200": 2079,
      "Ġbu": 2080,
      "ĠbÃ¨": 2081,
      "Ġnhiá»ħ": 2082,
      "ĠchiÃªn": 2083,
      "ĠCas": 2084,
      "ĠmÃłi": 2085,
      "ĠKim": 2086,
      "ony": 2087,
      "ĠAd": 2088,
      "áº¹o": 2089,
      "ard": 2090,
      "Ġchuyáº¿n": 2091,
      "¥ng": 2092,
      "Ġváº¿t": 2093,
      "ĠngÅ©": 2094,
      "ĠSau": 2095,
      "ĠKá»": 2096,
      "uno": 2097,
      "Ġpolyester": 2098,
      "Ġcá»ĳc": 2099,
      "ĠtÃ´": 2100,
      "ĠmÆ°á»£t": 2101,
      "Ã³i": 2102,
      "ĠtrÃ²ng": 2103,
      "ĠchÃ¡y": 2104,
      "ĠÄĲiá»ģu": 2105,
      "ĠThá»±c": 2106,
      "Ġeo": 2107,
      "ĠtÃ´ng": 2108,
      "ĠÄĳÆ°a": 2109,
      "Ġkáº¹p": 2110,
      "Ġdenim": 2111,
      "ĠSp": 2112,
      "ĠKem": 2113,
      "Ġtrá»©ng": 2114,
      "ĠHP": 2115,
      "Ġthuá»ĳc": 2116,
      "Ġphun": 2117,
      "ĠChÃło": 2118,
      "ĠThá»Ŀi": 2119,
      "90": 2120,
      "ea": 2121,
      "ix": 2122,
      "á»ģn": 2123,
      "Ġmáº¥t": 2124,
      "ĠmÆ°a": 2125,
      "ĠdÃ¹": 2126,
      "ĠhÃ´ng": 2127,
      "ĠCo": 2128,
      "ĠLÃ²": 2129,
      "Ã¹i": 2130,
      "ĠsuÃ´ng": 2131,
      "ĠVá»ģ": 2132,
      "Gi": 2133,
      "ph": 2134,
      "rop": 2135,
      "zen": 2136,
      "Ġnáº¡": 2137,
      "Ġváº½": 2138,
      "ĠÄĳá»Ŀi": 2139,
      "ĠSo": 2140,
      "Ġmuá»Ĺi": 2141,
      "ĠhÃ¨": 2142,
      "Ġinox": 2143,
      "oll": 2144,
      "ĠQuá»ĳc": 2145,
      "11": 2146,
      "deo": 2147,
      "ger": 2148,
      "Ġcong": 2149,
      "ĠcÃ¢u": 2150,
      "ĠmÃ¡c": 2151,
      "Ġbuá»ķi": 2152,
      "ĠgÃłi": 2153,
      "Ġgá»ĳm": 2154,
      "ĠLG": 2155,
      "ĠLu": 2156,
      "ĠGiáº¥y": 2157,
      "ĠWhi": 2158,
      "Ġvideo": 2159,
      "Ġsuá»ĳt": 2160,
      "ĠJuno": 2161,
      "ear": 2162,
      "Ġcáº¡nh": 2163,
      "ĠmáºŃt": 2164,
      "Ġbá»ĳ": 2165,
      "Ġtráº§n": 2166,
      "Ġcháº·": 2167,
      "ĠTá»ĳc": 2168,
      "Ġdá»ĩt": 2169,
      "ĠxÃ²": 2170,
      "Ġbá»ĥ": 2171,
      "ĠSÃ³ng": 2172,
      "ĠAs": 2173,
      "Ġphim": 2174,
      "pple": 2175,
      "ĠUni": 2176,
      "ĠxÃ²e": 2177,
      "cara": 2178,
      "ky": 2179,
      "ĠÄĲiá»ĩn": 2180,
      "ĠchÃºt": 2181,
      "ascara": 2182,
      "ĠQLED": 2183,
      "Ġ300": 2184,
      "ĠCuá»ĳn": 2185,
      "Ġdáº¡y": 2186,
      "kin": 2187,
      "ĠHÃ³a": 2188,
      "ĠháºŃu": 2189,
      "Ġsáº¯p": 2190,
      "ĠnghÄ©a": 2191,
      "ĠÄĲá»įc": 2192,
      "Ch": 2193,
      "son": 2194,
      "ĠmÃ³c": 2195,
      "Ġdáº¡o": 2196,
      "Ġchá»ķi": 2197,
      "ĠCon": 2198,
      "Ġlá»Ĺ": 2199,
      "ĠMÃłn": 2200,
      "Ġnháº«n": 2201,
      "ĠmÃłng": 2202,
      "ĠkÃŃn": 2203,
      "ass": 2204,
      "Ġá»ķn": 2205,
      "ĠKhÃ³a": 2206,
      "azer": 2207,
      "iet": 2208,
      "ĠnuÃ´i": 2209,
      "Ġthá»Ŀ": 2210,
      "ĠCPU": 2211,
      "ĠMicro": 2212,
      "ĠSáº¡c": 2213,
      "ĠVascara": 2214,
      "ĠPháº": 2215,
      "ÄĲá»Ļ": 2216,
      "ry": 2217,
      "Ġtu": 2218,
      "Ġnáº¿p": 2219,
      "ĠtrÃ¡ng": 2220,
      "Ġnhi": 2221,
      "ĠchÆ°Æ¡ng": 2222,
      "ĠTai": 2223,
      "ĠlÃłnh": 2224,
      "era": 2225,
      "Ġquyá»ģn": 2226,
      "Ġ50": 2227,
      "ĠVá»Ľ": 2228,
      "12": 2229,
      "Ľp": 2230,
      "Ġtáº§n": 2231,
      "ĠvÃŃt": 2232,
      "Ġmod": 2233,
      "Ġkeo": 2234,
      "ĠxÄĥm": 2235,
      "Ġlá»ĩ": 2236,
      "ĠSony": 2237,
      "Ġháº§": 2238,
      "ba": 2239,
      "ew": 2240,
      "iao": 2241,
      "ĠcÄĥn": 2242,
      "Ġmáº»": 2243,
      "Ġbáº§u": 2244,
      "ĠtrÆ°ng": 2245,
      "Ġlá»ıng": 2246,
      "ĠSÆ¡n": 2247,
      "ĠKG": 2248,
      "ĠAll": 2249,
      "orm": 2250,
      "ĠChÃŃ": 2251,
      "70": 2252,
      "CÃ¡c": 2253,
      "Ġox": 2254,
      "Ġax": 2255,
      "ĠÄĳáº·n": 2256,
      "Ġgáº¥p": 2257,
      "ĠNik": 2258,
      "ĠÄĳá»Ļi": 2259,
      "Ġháº£o": 2260,
      "old": 2261,
      "apter": 2262,
      "Ġaxit": 2263,
      "Ġláº¥p": 2264,
      "ĠthÃ¡ng": 2265,
      "ĠBÃ¬nh": 2266,
      "ĠÄĲáº§u": 2267,
      "ĠKháº": 2268,
      "ĠAir": 2269,
      "ghi": 2270,
      "ĠcÃºng": 2271,
      "Ġscan": 2272,
      "Ġcháº£i": 2273,
      "Ġcá»į": 2274,
      "ĠBÄĥng": 2275,
      "Ġtá»Ľi": 2276,
      "ĠVÃ²ng": 2277,
      "ĠHá»ĩ": 2278,
      "Ġchuá»Ļt": 2279,
      "Ġjog": 2280,
      "Ġbá»ĩt": 2281,
      "ĠTrá»įng": 2282,
      "ĠSHD": 2283,
      "ĠNike": 2284,
      "Ġjogger": 2285,
      "15": 2286,
      "Ġtiá»ĩt": 2287,
      "ĠnÃ¢u": 2288,
      "ĠsÃ¢n": 2289,
      "ĠBook": 2290,
      "Ġnháº¥n": 2291,
      "ĠVali": 2292,
      "ĠPl": 2293,
      "ĠApple": 2294,
      "ĠUPS": 2295,
      "Ġcháº·t": 2296,
      "Hz": 2297,
      "Ng": 2298,
      "US": 2299,
      "qlo": 2300,
      "Ġ0": 2301,
      "Ńng": 2302,
      "Ġtáº§m": 2303,
      "Ġdai": 2304,
      "Ġlá»Ŀi": 2305,
      "Ġtrá»ħ": 2306,
      "ĠRo": 2307,
      "ĠXiao": 2308,
      "ize": 2309,
      "ĠXiaomi": 2310,
      "sky": 2311,
      "ĠlÃ¡nh": 2312,
      "ĠvÆ°á»£t": 2313,
      "Ġkáº¹o": 2314,
      "ĠdÄ©a": 2315,
      "ĠcÃ³i": 2316,
      "Ġdá»±ng": 2317,
      "Ġkhuy": 2318,
      "ĠrÃºt": 2319,
      "Ġtháº³ng": 2320,
      "ĠDá»¥ng": 2321,
      "ĠOnline": 2322,
      "Ġá»ĳ": 2323,
      "Ġvá»¡": 2324,
      "ĠNort": 2325,
      "Ġlá»įt": 2326,
      "ĠDi": 2327,
      "ĠnghiÃªm": 2328,
      "age": 2329,
      "Ġnhá»Ľt": 2330,
      "ĠUniqlo": 2331,
      "ĠNorth": 2332,
      "Ah": 2333,
      "tel": 2334,
      "µn": 2335,
      "ĠbÃ³n": 2336,
      "Ġgáº·p": 2337,
      "Ġtráº£": 2338,
      "Ġlá»©a": 2339,
      "ino": 2340,
      "ĠHo": 2341,
      "ĠphÆ°Æ¡ng": 2342,
      "hiba": 2343,
      "ĠbÃ©n": 2344,
      "oshiba": 2345,
      "Ġtá»īa": 2346,
      "aby": 2347,
      "ver": 2348,
      "Ġtáº¯c": 2349,
      "Ġmá»ĳc": 2350,
      "Ġchá»¯a": 2351,
      "Ġkhiáº¿n": 2352,
      "ĠCÃ¡p": 2353,
      "ĠCom": 2354,
      "ĠViá»ĩc": 2355,
      "ĠLog": 2356,
      "Ã£o": 2357,
      "ĠchuÃ´ng": 2358,
      "ĠcÃ¡i": 2359,
      "ist": 2360,
      "ĠWhisky": 2361,
      "Ġoxy": 2362,
      "th": 2363,
      "ĠÃ´ng": 2364,
      "Ġclutch": 2365,
      "Ġcrop": 2366,
      "Ġmiá»ĩ": 2367,
      "Ġmá»ĳi": 2368,
      "ĠsÄ©": 2369,
      "ĠgÃ³i": 2370,
      "ĠTef": 2371,
      "ink": 2372,
      "ĠDu": 2373,
      "Ġ19": 2374,
      "atin": 2375,
      "ĠII": 2376,
      "Ġtá»ķn": 2377,
      "Ġmiá»ĩng": 2378,
      "16": 2379,
      "800": 2380,
      "«u": 2381,
      "ĵng": 2382,
      "ĠlÃ¡": 2383,
      "ĠbÃ³": 2384,
      "ĠdÃ¢n": 2385,
      "ĠthÃ¡o": 2386,
      "ĠhÃłi": 2387,
      "ĠToshiba": 2388,
      "Ġlá»Ńng": 2389,
      "ĠÄĲáº§m": 2390,
      "ĠAc": 2391,
      "ĠchÃŃn": 2392,
      "ĠTruyá»ĩn": 2393,
      "ĠEm": 2394,
      "did": 2395,
      "ĠCasio": 2396,
      "ĠPháº§n": 2397,
      "£t": 2398,
      "Ġcáº¯m": 2399,
      "Ġtáº±m": 2400,
      "ĠnÃªm": 2401,
      "ĠdÃµi": 2402,
      "Ġchai": 2403,
      "ĠcháºŃm": 2404,
      "ĠBl": 2405,
      "ĠMinh": 2406,
      "ĠMáº«u": 2407,
      "ĠLoa": 2408,
      "erm": 2409,
      "ord": 2410,
      "ĠÃĶ": 2411,
      "ĠAnanas": 2412,
      "iko": 2413,
      "ĠPhÃ¢n": 2414,
      "ĠÐ": 2415,
      "Ġcáº·p": 2416,
      "ĠnÃºt": 2417,
      "Ġlá»Ļn": 2418,
      "Ġcá»©u": 2419,
      "ano": 2420,
      "ĠÄĲá»Ļng": 2421,
      "Ġmá»¥n": 2422,
      "ĠGold": 2423,
      "ail": 2424,
      "ĠAdid": 2425,
      "ĠTefal": 2426,
      "ĠAdidas": 2427,
      "):": 2428,
      "TB": 2429,
      "ey": 2430,
      "mark": 2431,
      "ĠÄĳáº¥t": 2432,
      "Ġbong": 2433,
      "Ġga": 2434,
      "ĠgÄĥng": 2435,
      "ĠdÃ¢u": 2436,
      "ĠtrÃ³c": 2437,
      "Ġchuyá»ĩn": 2438,
      "Ġná»Ńa": 2439,
      "Ġ16": 2440,
      "ĠNgá»": 2441,
      "Ġnháº¡t": 2442,
      "ĠPhÃ¡p": 2443,
      "ĠHub": 2444,
      "24": 2445,
      "fort": 2446,
      "per": 2447,
      "ĠcÆ°Æ¡ng": 2448,
      "ĠtÃ¡i": 2449,
      "ĠtÃłu": 2450,
      "Ġnáº¥m": 2451,
      "ĠkÃ½": 2452,
      "Ġdáº¥u": 2453,
      "ĠTÃ¡c": 2454,
      "ĠTiáº¿n": 2455,
      "ĠxÃł": 2456,
      "ĠphÃº": 2457,
      "Ġtá»¥c": 2458,
      "ĠÄĲÃ´ng": 2459,
      "oner": 2460,
      "ĠCháº¿": 2461,
      "ĠFace": 2462,
      "iss": 2463,
      "Ġform": 2464,
      "Ġxoay": 2465,
      "ci": 2466,
      "ok": 2467,
      "¢u": 2468,
      "ĠÄĳáº¡m": 2469,
      "Ġláº¡": 2470,
      "ĠlÆ°á»¡ng": 2471,
      "ĠgÃł": 2472,
      "Ġtrá»Ļn": 2473,
      "Ġngay": 2474,
      "ĠphÃºt": 2475,
      "ama": 2476,
      "ĠtÃŃm": 2477,
      "ĠPr": 2478,
      "Ġ25": 2479,
      "ica": 2480,
      "ilk": 2481,
      "ĠDá»ħ": 2482,
      "ĠTá»§": 2483,
      "ĠSeiko": 2484,
      "ĠÃĶng": 2485,
      "net": 2486,
      "ul": 2487,
      "ĠÄĳun": 2488,
      "ĠbÃły": 2489,
      "ĠgÃłng": 2490,
      "ĠTáº¿t": 2491,
      "ĠngÃ´i": 2492,
      "Ġngáº·t": 2493,
      "ĠCÃ¢y": 2494,
      "ĠCÃłi": 2495,
      "ĠClutch": 2496,
      "ant": 2497,
      "ĠMi": 2498,
      "ĠRO": 2499,
      "ckoo": 2500,
      "tra": 2501,
      "ure": 2502,
      "ĠÄĲá»©c": 2503,
      "ThÆ°Æ¡ng": 2504,
      "her": 2505,
      "Ġone": 2506,
      "Ġná»ĵng": 2507,
      "ĠCle": 2508,
      "Ġtá»ıi": 2509,
      "ĠSun": 2510,
      "ĠGiá»": 2511,
      "ĠGÄĥng": 2512,
      "ĠDy": 2513,
      "Ġ24": 2514,
      "ega": 2515,
      "ĠChÃŃnh": 2516,
      "ĠBookmark": 2517,
      "18": 2518,
      "Kiá»ĥm": 2519,
      "ie": 2520,
      "Ġsize": 2521,
      "Ġbung": 2522,
      "Ġduy": 2523,
      "Ãªnh": 2524,
      "Ġcá»¡": 2525,
      "Ġchá»¥c": 2526,
      "Ġbá»ĵn": 2527,
      "che": 2528,
      "Ġgá»įi": 2529,
      "ĠthuáºŃn": 2530,
      "ĠOLED": 2531,
      "ise": 2532,
      "ĠCuckoo": 2533,
      "itizen": 2534,
      "ower": 2535,
      "ĠPlus": 2536,
      "MB": 2537,
      "ker": 2538,
      "uc": 2539,
      "áºµn": 2540,
      "Ġsáºµn": 2541,
      "ĠbÃŃ": 2542,
      "ĠbÃ¡t": 2543,
      "Ġthan": 2544,
      "Ġthuyáº¿t": 2545,
      "Ġtru": 2546,
      "Ġpháº³ng": 2547,
      "Ġkhuyáº¿t": 2548,
      "ĠCitizen": 2549,
      "ĠxÃ£": 2550,
      "Ġtá»ĳn": 2551,
      "ĠHy": 2552,
      "ash": 2553,
      "aphi": 2554,
      "Ġrá»Ŀi": 2555,
      "ĠMá»©c": 2556,
      "iger": 2557,
      "ĠLá»±a": 2558,
      "itech": 2559,
      "Ġshorts": 2560,
      "ĠKháº£": 2561,
      "100": 2562,
      "PA": 2563,
      "ub": 2564,
      "Ġnho": 2565,
      "Ġnguy": 2566,
      "ĠMas": 2567,
      "ĠLÃł": 2568,
      "ĠHun": 2569,
      "ĠDo": 2570,
      "ors": 2571,
      "ĠOw": 2572,
      "Ġxá»©ng": 2573,
      "ĠCuá»ĳi": 2574,
      "Ġnhiá»ħm": 2575,
      "ixel": 2576,
      "ss": 2577,
      "ĠcÄĥng": 2578,
      "Ġthang": 2579,
      "ĠthÃ¡i": 2580,
      "ĠNá»": 2581,
      "ĠxÃ¢y": 2582,
      "ans": 2583,
      "Ġtháº£o": 2584,
      "Ġphá»©c": 2585,
      "online": 2586,
      "ĠDell": 2587,
      "Ġgiá»ĳng": 2588,
      "ĠUl": 2589,
      "ĠMá»¹": 2590,
      "agen": 2591,
      "Ġcoi": 2592,
      "ĠThÃ¢n": 2593,
      "ollagen": 2594,
      "ĠAsus": 2595,
      "DR": 2596,
      "MI": 2597,
      "mAh": 2598,
      "ĠlÃª": 2599,
      "Ġsil": 2600,
      "Ġpixel": 2601,
      "ĠthÃ¡m": 2602,
      "ĠtrÃ¬": 2603,
      "Ġmá»¡": 2604,
      "air": 2605,
      "aser": 2606,
      "ide": 2607,
      "Ġháº¹p": 2608,
      "ĠElise": 2609,
      "ChÃło": 2610,
      "do": 2611,
      "mer": 2612,
      "oh": 2613,
      "¡m": 2614,
      "Ġai": 2615,
      "Ľt": 2616,
      "Ġcm": 2617,
      "Ġcanh": 2618,
      "Ġtáº¥m": 2619,
      "Ġmiá»ħn": 2620,
      "Ġnhang": 2621,
      "ĠÄĲÃ¡nh": 2622,
      "áºŃu": 2623,
      "ĠLa": 2624,
      "ĠLÃ½": 2625,
      "Ġná»ĭt": 2626,
      "ĠHÃł": 2627,
      "ĠAB": 2628,
      "ĠTrung": 2629,
      "Ġrá»ī": 2630,
      "ĠSá»ķ": 2631,
      "ight": 2632,
      "Ġháº§u": 2633,
      "DA": 2634,
      "aw": 2635,
      "cm": 2636,
      "hone": 2637,
      "ĵi": 2638,
      "ĠmÃ´": 2639,
      "Ġhiá»ĥm": 2640,
      "ĠCÃ¡": 2641,
      "Ġxin": 2642,
      "ĠxÃ¡m": 2643,
      "amp": 2644,
      "ĠSak": 2645,
      "ĠtháºŃm": 2646,
      "ĠLen": 2647,
      "ĠHil": 2648,
      "Ġgiá»ı": 2649,
      "ĠTrÃł": 2650,
      "ĠcÃ¡t": 2651,
      "Ġ360": 2652,
      "ĠWi": 2653,
      "Ġcháº¡m": 2654,
      "ĠHunter": 2655,
      "22": 2656,
      "</": 2657,
      "VY": 2658,
      "ght": 2659,
      "¢m": 2660,
      "hÃºt": 2661,
      "Ġdáº»": 2662,
      "Ġhiá»ĥn": 2663,
      "Ġtrinh": 2664,
      "Ġdá»«a": 2665,
      "ĠCA": 2666,
      "ĠCÃ¡ch": 2667,
      "eries": 2668,
      "Ġ14": 2669,
      "ĠtoÃ¡n": 2670,
      "ĠHDMI": 2671,
      "ĠLá»±c": 2672,
      "avy": 2673,
      "ĠiP": 2674,
      "ĠlÃ£m": 2675,
      "ĠAdapter": 2676,
      "ĠOwen": 2677,
      "ĠSakos": 2678,
      "IM": 2679,
      "Nhá»": 2680,
      "Tháº¿": 2681,
      "xi": 2682,
      "ĠÄĳÆ¡": 2683,
      "á»Ļm": 2684,
      "Ġcháº£": 2685,
      "Ġkhung": 2686,
      "ĠngÃ²i": 2687,
      "ĠCore": 2688,
      "ĠBa": 2689,
      "ĠHR": 2690,
      "ĠHÃ¬nh": 2691,
      "ĠDV": 2692,
      "ishi": 2693,
      "Ġ43": 2694,
      "Ġ600": 2695,
      "Ġcamera": 2696,
      "ĠCá»§": 2697,
      "GiÃ¡": 2698,
      "Nhá»¯ng": 2699,
      "by": 2700,
      "ium": 2701,
      "phÃºt": 2702,
      "Ġonline": 2703,
      "Ġcá»ĳi": 2704,
      "ĠpH": 2705,
      "Ġthiá»ĥu": 2706,
      "ĠthÆ°á»Łng": 2707,
      "ĠhÃ³c": 2708,
      "Ġtre": 2709,
      "ĠCollagen": 2710,
      "ĠxÃło": 2711,
      "Ġquay": 2712,
      "Ġbá»¯a": 2713,
      "ĠÄĲiá»ĥm": 2714,
      "ĠMay": 2715,
      "ĠGá»ĳi": 2716,
      "ĠcÅ©": 2717,
      "ĠTrÃªn": 2718,
      "ĠEps": 2719,
      "ley": 2720,
      "light": 2721,
      "ade": 2722,
      "ĠLá»Ľp": 2723,
      "ĠEpson": 2724,
      "99": 2725,
      "Tr": 2726,
      "cam": 2727,
      "ev": 2728,
      "ke": 2729,
      "ra": 2730,
      "Ð¾": 2731,
      "Ġtáº¯t": 2732,
      "Ġláº¯ng": 2733,
      "Ġváº·t": 2734,
      "Ġváº¡ch": 2735,
      "ĠmÃ©t": 2736,
      "Ã³p": 2737,
      "Ġtrá»Ļi": 2738,
      "ĠThÃ´ng": 2739,
      "ĠngÃ´n": 2740,
      "ĠLan": 2741,
      "ĠLaptop": 2742,
      "ĠthoÃ¡t": 2743,
      "ĠTranh": 2744,
      "its": 2745,
      "Ġkhá»Łi": 2746,
      "olt": 2747,
      "ĠFu": 2748,
      "ĠIVY": 2749,
      "ĠMá»±c": 2750,
      "ifa": 2751,
      "ĠCanifa": 2752,
      "ĠLogitech": 2753,
      "Fi": 2754,
      "MÃ¡y": 2755,
      "bon": 2756,
      "ct": 2757,
      "ian": 2758,
      "Ġbáº¥m": 2759,
      "Ġkáº»": 2760,
      "Ġdáº·n": 2761,
      "Ġthi": 2762,
      "Ġhá»§": 2763,
      "ĠTÃ´": 2764,
      "ĠTuá»ķi": 2765,
      "Ġkhiáº¿t": 2766,
      "ĠCotton": 2767,
      "ĠxÃ¹": 2768,
      "ĠVÄĥn": 2769,
      "Ġ60": 2770,
      "Ġcard": 2771,
      "ody": 2772,
      "ĠABS": 2773,
      "Ġdáº»o": 2774,
      "AN": 2775,
      "Book": 2776,
      "Nh": 2777,
      "TÃŃnh": 2778,
      "gen": 2779,
      "oáº£ng": 2780,
      "ĠniÃªn": 2781,
      "ĠnÃªu": 2782,
      "Ġly": 2783,
      "Ġpad": 2784,
      "Ġtráº§m": 2785,
      "Ġcá»«u": 2786,
      "ĠTom": 2787,
      "ĠCl": 2788,
      "ind": 2789,
      "Ġná»¯a": 2790,
      "ĠThun": 2791,
      "ĠnghiÃªn": 2792,
      "ĠRazer": 2793,
      "ĠQuy": 2794,
      "Ġ800": 2795,
      "Thiáº¿t": 2796,
      "ĠBrot": 2797,
      "Ġbuá»Ļc": 2798,
      "Má»Ļt": 2799,
      "br": 2800,
      "bolt": 2801,
      "dro": 2802,
      "ep": 2803,
      "Ġlaser": 2804,
      "ĠmÃ©o": 2805,
      "Ġmáº¯c": 2806,
      "Ġsatin": 2807,
      "Ġbl": 2808,
      "ĠbÃł": 2809,
      "ĠTiÃªu": 2810,
      "Ġchá»¥p": 2811,
      "ĠBack": 2812,
      "ĠÄĲáºŃu": 2813,
      "Ãºn": 2814,
      "ĠSte": 2815,
      "ĠVu": 2816,
      "ĠGáº¡o": 2817,
      "ĠGel": 2818,
      "ĠHiá»ĩu": 2819,
      "arg": 2820,
      "ast": 2821,
      "Ġngá»įc": 2822,
      "ĠNguá»ĵn": 2823,
      "ĠRáº¥t": 2824,
      "olate": 2825,
      "dio": 2826,
      "andex": 2827,
      "ĠIntel": 2828,
      "derbolt": 2829,
      "verter": 2830,
      "ĠUltra": 2831,
      "ĠThunderbolt": 2832,
      "Báº¡n": 2833,
      "EA": 2834,
      "Kiá»ĥu": 2835,
      "ff": 2836,
      "nam": 2837,
      "Ã³m": 2838,
      "Ġtruy": 2839,
      "Ġcá»¥c": 2840,
      "ĠCar": 2841,
      "ĠBÃ¡t": 2842,
      "ĠMon": 2843,
      "Ã©n": 2844,
      "Ġchiáº¿n": 2845,
      "ĠHáº£i": 2846,
      "ĠDr": 2847,
      "Ġyáº¿n": 2848,
      "ĠChoc": 2849,
      "Ġcanxi": 2850,
      "Ġ80": 2851,
      "Ġkhuyáº¿n": 2852,
      "ĠComfort": 2853,
      "Ġsilic": 2854,
      "13": 2855,
      "BL": 2856,
      "GA": 2857,
      "ach": 2858,
      "gg": 2859,
      "our": 2860,
      "pack": 2861,
      "Ġac": 2862,
      "ĠnÃ©n": 2863,
      "Ġmong": 2864,
      "ĠTÃ£": 2865,
      "Ġtá»ı": 2866,
      "ĠMua": 2867,
      "ĠMÃ¹i": 2868,
      "ĠVÃ¡y": 2869,
      "Ġsáº¯t": 2870,
      "Ġháº¡nh": 2871,
      "ĠNguyÃªn": 2872,
      "ĠEn": 2873,
      "eston": 2874,
      "Ġrá»¡": 2875,
      "ĠLá»ĭch": 2876,
      "ĠChÃºc": 2877,
      "ĠCanon": 2878,
      "ĠBrother": 2879,
      "><": 2880,
      "eat": 2881,
      "ka": 2882,
      "ler": 2883,
      "my": 2884,
      "pi": 2885,
      "ĳi": 2886,
      "Ġcáº¡p": 2887,
      "Ġnavy": 2888,
      "Ġlog": 2889,
      "ĠgÃ£y": 2890,
      "Ġthiá»ĩp": 2891,
      "ĠcháºŃt": 2892,
      "Ġvá»ī": 2893,
      "Ġvá»£t": 2894,
      "ĠToner": 2895,
      "Ġpháº¡m": 2896,
      "áº·m": 2897,
      "ĠNhÃ": 2898,
      "ĠxÆ°Æ¡ng": 2899,
      "ĠMÅ©": 2900,
      "Ã¬m": 2901,
      "ĠViet": 2902,
      "ĠDDR": 2903,
      "ĠPi": 2904,
      "ĠphiÃªn": 2905,
      "ĠphÆ¡i": 2906,
      "ĠyÃªn": 2907,
      "Ġvá»ĭt": 2908,
      "ĠNhá»±a": 2909,
      "ĠEx": 2910,
      "ĠOm": 2911,
      "ĠOr": 2912,
      "ĠNhiá»ĩt": 2913,
      "ylic": 2914,
      "Ġ304": 2915,
      "ĠTrá»ĭ": 2916,
      "ĠLuáºŃn": 2917,
      "ĠChocolate": 2918,
      "33": 2919,
      "Khi": 2920,
      "TÃºi": 2921,
      "iu": 2922,
      "ut": 2923,
      "Ġtan": 2924,
      "ĠtáºŃn": 2925,
      "ĠmÃ´n": 2926,
      "Ġsp": 2927,
      "ĠCÃł": 2928,
      "ĠnÃłng": 2929,
      "Ġxung": 2930,
      "ĠLiá»ĩu": 2931,
      "ĠAM": 2932,
      "Ġphao": 2933,
      "arm": 2934,
      "itan": 2935,
      "ĠOri": 2936,
      "ĠThÃ©p": 2937,
      "oft": 2938,
      "Ġá»ĳp": 2939,
      "Pos": 2940,
      "Qu": 2941,
      "TG": 2942,
      "¥y": 2943,
      "ĭp": 2944,
      "Ġcáº¥t": 2945,
      "ĠÄĳá»ĳt": 2946,
      "ĠvÃ´": 2947,
      "ĠvÅ©": 2948,
      "Ġgáº§n": 2949,
      "ĠÄĳá»ķ": 2950,
      "ĠrÃ¡n": 2951,
      "Ġbá»įt": 2952,
      "áº¥c": 2953,
      "ĠLou": 2954,
      "ĠPU": 2955,
      "ĠPre": 2956,
      "áº¹n": 2957,
      "ĠTrang": 2958,
      "ĠWat": 2959,
      "ĠChu": 2960,
      "ĠchÃ©p": 2961,
      "ĠVá»ı": 2962,
      "ĠThá»¥y": 2963,
      "ĠkhÃ³i": 2964,
      "ĠAnker": 2965,
      "arket": 2966,
      "ĠBá»ĭ": 2967,
      "ĠRoche": 2968,
      "ubishi": 2969,
      "orsair": 2970,
      "itsubishi": 2971,
      "Posay": 2972,
      "CD": 2973,
      "figer": 2974,
      "ĠtÆ¡": 2975,
      "Ġniá»ĩm": 2976,
      "Ġnáº±m": 2977,
      "ĠmÃ£i": 2978,
      "ĠbÃ´i": 2979,
      "ĠbÆ°á»Ľc": 2980,
      "Ġbá»ĳt": 2981,
      "Ġdiá»ħn": 2982,
      "ĠnhÃ³m": 2983,
      "Ġgiáº¥c": 2984,
      "ĠCro": 2985,
      "Ġtá»Ŀ": 2986,
      "ĠKáº¿t": 2987,
      "ĠHÃłn": 2988,
      "ĠPower": 2989,
      "enc": 2990,
      "ĠRT": 2991,
      "ĠFr": 2992,
      "ĠOTG": 2993,
      "ĠKhoa": 2994,
      "ĠPhÃ²ng": 2995,
      "Ġnhiá»ħu": 2996,
      "Ġmoda": 2997,
      "ĠDyson": 2998,
      "ĠHilfiger": 2999,
      "25": 3000,
      "VN": 3001,
      "bps": 3002,
      "fa": 3003,
      "mart": 3004,
      "oan": 3005,
      "ym": 3006,
      "Ðµ": 3007,
      "á»Ľ": 3008,
      "ĠcÃ¡o": 3009,
      "ĠthÃ´": 3010,
      "ĠlÆ°á»£c": 3011,
      "ĠvÃªnh": 3012,
      "ĠsÃ´i": 3013,
      "Ġban": 3014,
      "ĠbÆ°u": 3015,
      "Ġthon": 3016,
      "Ġvá»Ł": 3017,
      "Ġquen": 3018,
      "ĠrÆ¡i": 3019,
      "ĠBel": 3020,
      "ĠBaby": 3021,
      "ĠMitsubishi": 3022,
      "onite": 3023,
      "Ġ1000": 3024,
      "áº¹t": 3025,
      "ĠThu": 3026,
      "ĠThiÃªn": 3027,
      "Ġnghiá»ĩt": 3028,
      "ĠÃĤ": 3029,
      "ation": 3030,
      "ĠChuyÃªn": 3031,
      "ĠPhÃº": 3032,
      "ĠlÃ£ng": 3033,
      "ĠHá»įc": 3034,
      "ĠCool": 3035,
      "ĠTommy": 3036,
      ".</": 3037,
      "21": 3038,
      "600": 3039,
      "Te": 3040,
      "fe": 3041,
      "sp": 3042,
      "Ġcáº·n": 3043,
      "Ġsen": 3044,
      "Ġgang": 3045,
      "Ġtrá»ĵng": 3046,
      "Ġthá»©": 3047,
      "ĠTay": 3048,
      "ĠTÃ³c": 3049,
      "ĠNano": 3050,
      "Ġquanh": 3051,
      "Ġlá»©t": 3052,
      "ĠMÃ¬": 3053,
      "ĠMid": 3054,
      "ĠSá»ĳ": 3055,
      "ĠSIM": 3056,
      "Ġmá»Ŀ": 3057,
      "ĠKáº¹p": 3058,
      "ĠLÆ°u": 3059,
      "ĠGia": 3060,
      "Ġ2000": 3061,
      "ĠEco": 3062,
      "esh": 3063,
      "Ġrá»±c": 3064,
      "ish": 3065,
      "und": 3066,
      "ĠThá»©": 3067,
      "ĠInverter": 3068,
      "ĠZara": 3069,
      "ĠTháº¯t": 3070,
      "ĠGá»£i": 3071,
      "ucci": 3072,
      "Ġhá»§y": 3073,
      "NhÆ°á»£c": 3074,
      "ĠOrient": 3075,
      "27": 3076,
      "65": 3077,
      "BÃłn": 3078,
      "EM": 3079,
      "Link": 3080,
      "bi": 3081,
      "mm": 3082,
      "site": 3083,
      "ta": 3084,
      "ĭa": 3085,
      "Ġváº¹n": 3086,
      "Ġse": 3087,
      "Ġhalo": 3088,
      "ĠgiÃ²n": 3089,
      "Ġgiáº£ng": 3090,
      "Ġcháº½": 3091,
      "ĠTÄĥng": 3092,
      "ĠCao": 3093,
      "ĠrÃ²": 3094,
      "ĠBÃł": 3095,
      "ĠSch": 3096,
      "ina": 3097,
      "ĠVÃ²i": 3098,
      "ĠLÆ°á»¡i": 3099,
      "ĠLÃµi": 3100,
      "Ġná»©t": 3101,
      "Ġá»Ĳ": 3102,
      "ĠGucci": 3103,
      "erg": 3104,
      "ĠAqu": 3105,
      "ĠphÆ°á»£t": 3106,
      "Ġ17": 3107,
      "ele": 3108,
      "ternet": 3109,
      "Ġáº¤": 3110,
      "ĠSamsonite": 3111,
      "Ġpolo": 3112,
      "Ġnhá»Ŀn": 3113,
      "ĠKá»³": 3114,
      "ĠHoÃłng": 3115,
      "ĠSunlight": 3116,
      "ĠBackpack": 3117,
      "estone": 3118,
      "arketing": 3119,
      "45": 3120,
      "CÃ³": 3121,
      "PF": 3122,
      "da": 3123,
      "ti": 3124,
      "vá»Ľ": 3125,
      "yc": 3126,
      "²e": 3127,
      "Ð¸": 3128,
      "Ġof": 3129,
      "Ġla": 3130,
      "Ġláº¥y": 3131,
      "Ġkar": 3132,
      "Ġgáº¯n": 3133,
      "ĠtrÃ¹": 3134,
      "ĠÄĳá»©t": 3135,
      "aoke": 3136,
      "cha": 3137,
      "ĠÄĲáº·c": 3138,
      "ĠMÃ¬nh": 3139,
      "ĠMer": 3140,
      "Ãºa": 3141,
      "Ġmuá»ĳi": 3142,
      "ĠKing": 3143,
      "ĠLau": 3144,
      "Ġná»ķ": 3145,
      "ĠGl": 3146,
      "ĠAl": 3147,
      "ĠThÃ¡i": 3148,
      "ice": 3149,
      "ĠnhÃ²e": 3150,
      "ĠEL": 3151,
      "ĠEc": 3152,
      "ĠVá»ĩ": 3153,
      "Ġbá»īm": 3154,
      "ĠChÃ¢u": 3155,
      "Ġ65": 3156,
      "ĠBluestone": 3157,
      "Ġ700": 3158,
      "ĠBlack": 3159,
      "ĠFull": 3160,
      "ĠAMD": 3161,
      "Ġáº¤m": 3162,
      "Ġkaraoke": 3163,
      "01": 3164,
      "ld": 3165,
      "ram": 3166,
      "rus": 3167,
      "uá»ĳc": 3168,
      "£m": 3169,
      "ĠÄĳáº¯ng": 3170,
      "ĠsÃºp": 3171,
      "Ġsáº¥u": 3172,
      "Ġbay": 3173,
      "ĠbÃ¡ch": 3174,
      "áº¿m": 3175,
      "ĠchÃ¡o": 3176,
      "ĠTinh": 3177,
      "Ġsá»Ŀ": 3178,
      "ĠxÃŃch": 3179,
      "Ġrung": 3180,
      "ĠMod": 3181,
      "ĠSinh": 3182,
      "ĠPC": 3183,
      "ĠPol": 3184,
      "Ġ11": 3185,
      "Ġ13": 3186,
      "ashi": 3187,
      "ĠTrÆ°á»Ľc": 3188,
      "axy": 3189,
      "ĠVina": 3190,
      "ovo": 3191,
      "ĠGá»Ĺ": 3192,
      "Ġmodal": 3193,
      "Ġsilicon": 3194,
      "Ġhalogen": 3195,
      "1000": 3196,
      "400": 3197,
      "CÃ´ng": 3198,
      "SI": 3199,
      "ble": 3200,
      "eis": 3201,
      "port": 3202,
      "Ġtam": 3203,
      "ĠtÃ¡o": 3204,
      "Ġma": 3205,
      "Ġmáº¡": 3206,
      "Ġbiá»ĥu": 3207,
      "ĠgÆ°Æ¡ng": 3208,
      "ĠtrÃ¢m": 3209,
      "ĠChi": 3210,
      "ĠCoc": 3211,
      "ĠCorsair": 3212,
      "ĠNEM": 3213,
      "ĠBas": 3214,
      "Ġlá»Ńa": 3215,
      "ani": 3216,
      "ĠÄĲáº¡i": 3217,
      "ĠmÃ¡u": 3218,
      "int": 3219,
      "ĠVÃ¬": 3220,
      "ĠVÃ¢ng": 3221,
      "ĠKinh": 3222,
      "ĠGal": 3223,
      "ens": 3224,
      "Ġ18": 3225,
      "ĠRy": 3226,
      "ĠRou": 3227,
      "ĠCháº£o": 3228,
      "Ġ21": 3229,
      "ory": 3230,
      "eless": 3231,
      "Ġsofa": 3232,
      "ĠWeb": 3233,
      "Ġ40": 3234,
      "Ġ400": 3235,
      "act": 3236,
      "able": 3237,
      "ireless": 3238,
      "own": 3239,
      "ĠVinam": 3240,
      "Ġlogo": 3241,
      "Ġá»Ĳp": 3242,
      "AR": 3243,
      "BA": 3244,
      "ER": 3245,
      "PC": 3246,
      "PT": 3247,
      "Sh": 3248,
      "Thá»": 3249,
      "eon": 3250,
      "ford": 3251,
      "rylic": 3252,
      "tail": 3253,
      "udio": 3254,
      "wi": 3255,
      "Ġol": 3256,
      "Ġviá»ħn": 3257,
      "ĠbÃ¡c": 3258,
      "ĠbÃ¨o": 3259,
      "Ġdanh": 3260,
      "Ġhy": 3261,
      "ĠtrÃłn": 3262,
      "ĠchÆ°a": 3263,
      "ĠTÃłi": 3264,
      "ĠTÃ¬m": 3265,
      "ĠCet": 3266,
      "ĠNÄĥm": 3267,
      "Ġbá»įc": 3268,
      "ĠSR": 3269,
      "Ġmá»ıi": 3270,
      "ĠKÃŃnh": 3271,
      "ith": 3272,
      "ĠWireless": 3273,
      "ĠFit": 3274,
      "ĠXÃ¡c": 3275,
      "ĠXuáº¥t": 3276,
      "ocktail": 3277,
      "Ġwebsite": 3278,
      "ĠTháº£m": 3279,
      "ĠKá»¹": 3280,
      "aphil": 3281,
      "ggies": 3282,
      "ĠMidea": 3283,
      "ĠGalaxy": 3284,
      "ĠRouter": 3285,
      "ĠCetaphil": 3286,
      "%,": 3287,
      "38": 3288,
      "CO": 3289,
      "ST": 3290,
      "Sá»": 3291,
      "Tuy": 3292,
      "fi": 3293,
      "ial": 3294,
      "lan": 3295,
      "ston": 3296,
      "soft": 3297,
      "¨ng": 3298,
      "ÑĢ": 3299,
      "Ġu": 3300,
      "Ġom": 3301,
      "ĠtÃ¡n": 3302,
      "Ġnáº¯m": 3303,
      "ĠÄĳÃ¡y": 3304,
      "ĠÄĳÃ¡m": 3305,
      "Ġváº¯ng": 3306,
      "ĠbÃło": 3307,
      "ĠdÃłn": 3308,
      "Ġhuyáº¿t": 3309,
      "ĠchÄĥn": 3310,
      "ĠTe": 3311,
      "ĠTáº£n": 3312,
      "Ġtá»·": 3313,
      "Ġlá»ħ": 3314,
      "ĠMar": 3315,
      "aun": 3316,
      "ĠSkin": 3317,
      "Ġá»¨ng": 3318,
      "ĠHT": 3319,
      "ĠPat": 3320,
      "ĠnhÃ©": 3321,
      "ĠnhÃŃ": 3322,
      "ora": 3323,
      "agate": 3324,
      "ĠÄĲá»ĭa": 3325,
      "ĠPhÃ¹": 3326,
      "ĠHuggies": 3327,
      "Ġláº»o": 3328,
      "ĠHá»Ĺ": 3329,
      "ĠLenovo": 3330,
      "Ġcháº£y": 3331,
      "droid": 3332,
      "Ġblazer": 3333,
      "eiser": 3334,
      "DI": 3335,
      "ah": 3336,
      "ko": 3337,
      "pt": 3338,
      "Ġtem": 3339,
      "Ġtáº¡m": 3340,
      "Ġvoan": 3341,
      "Ġmass": 3342,
      "Ġsai": 3343,
      "Ġsáº¿p": 3344,
      "Ġbe": 3345,
      "Ġguá»ĳc": 3346,
      "nheiser": 3347,
      "Ġtrá»ĳng": 3348,
      "á»ĳp": 3349,
      "Ġcá»©": 3350,
      "ĠngÃło": 3351,
      "áº§ng": 3352,
      "Ġsá»įc": 3353,
      "ĠCáº·p": 3354,
      "Ġxá»ĳp": 3355,
      "Ġnhá»ĭp": 3356,
      "ĠBÃªn": 3357,
      "ĠBat": 3358,
      "ĠLCD": 3359,
      "ĠHai": 3360,
      "ĠDÃ²ng": 3361,
      "ĠDown": 3362,
      "ĠPed": 3363,
      "Ġ150": 3364,
      "Ġ120": 3365,
      "ĠThÆ°á»Ŀng": 3366,
      "Ã£ng": 3367,
      "ĠRe": 3368,
      "ĠRGB": 3369,
      "ĠTrÃłng": 3370,
      "Ġkhá»ĳi": 3371,
      "Å©i": 3372,
      "isk": 3373,
      "ĠChÃ¢n": 3374,
      "ĠKhu": 3375,
      "ĠAndroid": 3376,
      "ĠDá»±": 3377,
      "ĠBose": 3378,
      "Ġacrylic": 3379,
      "ĠVinamilk": 3380,
      "Ġmassage": 3381,
      "Báº¿p": 3382,
      "EN": 3383,
      "MÃłu": 3384,
      "lim": 3385,
      "lish": 3386,
      "rive": 3387,
      "sm": 3388,
      "ue": 3389,
      "Ð°": 3390,
      "ĠÃ³c": 3391,
      "Ġad": 3392,
      "Ġcalo": 3393,
      "ĠcÃºc": 3394,
      "Ġtitan": 3395,
      "Ġtáº§ng": 3396,
      "ĠÄĳiá»ĩu": 3397,
      "ĠmÃ³p": 3398,
      "Ġsáº»": 3399,
      "Ġsal": 3400,
      "ĠbiÃªn": 3401,
      "Ġgáº¡ch": 3402,
      "Ġgym": 3403,
      "Ġtrá»Ļm": 3404,
      "Ġnha": 3405,
      "Ġchiáº¿t": 3406,
      "ĠTP": 3407,
      "Ġquáº¥n": 3408,
      "ĠBan": 3409,
      "ĠBá»ĥ": 3410,
      "amb": 3411,
      "ĠÄĲáº£m": 3412,
      "ĠMÃ¨o": 3413,
      "ĠMak": 3414,
      "ĠSc": 3415,
      "ines": 3416,
      "ĠKiáº¿n": 3417,
      "ĠKÃ©o": 3418,
      "Ã²a": 3419,
      "ĠHe": 3420,
      "ĠHáº¡n": 3421,
      "ĠHÃ²a": 3422,
      "ĠDol": 3423,
      "ĠAb": 3424,
      "ĠphÃ¡": 3425,
      "Ġ250": 3426,
      "eld": 3427,
      "app": 3428,
      "ĠÃģnh": 3429,
      "Ġhá»įp": 3430,
      "cket": 3431,
      "Ġthá»§ng": 3432,
      "ĠNhiá»ģu": 3433,
      "ĠJot": 3434,
      "ree": 3435,
      "reen": 3436,
      "Ġfl": 3437,
      "ĠSendo": 3438,
      "afele": 3439,
      "ĠÄĳoáº¡n": 3440,
      "ĠGá»įng": 3441,
      "ohn": 3442,
      "ĠAqua": 3443,
      "ĠtrÃ¹m": 3444,
      "ĠRyzen": 3445,
      "19": 3446,
      "35": 3447,
      "66": 3448,
      "AC": 3449,
      "AS": 3450,
      "FL": 3451,
      "HD": 3452,
      "Series": 3453,
      "dr": 3454,
      "hoáº£ng": 3455,
      "khoáº£ng": 3456,
      "ray": 3457,
      "vent": 3458,
      "ºc": 3459,
      "Ġcom": 3460,
      "nglish": 3461,
      "há»ĩ": 3462,
      "Ġmai": 3463,
      "ĠsÃ´": 3464,
      "ĠsÃ¡p": 3465,
      "ĠdÃ£o": 3466,
      "Ġdpi": 3467,
      "ĠTH": 3468,
      "ĠTot": 3469,
      "ĠCam": 3470,
      "ĠCÃ¡t": 3471,
      "ĠBÆ°á»Ľc": 3472,
      "ĠBÃ©": 3473,
      "ĠBal": 3474,
      "ĠgiÃ¡n": 3475,
      "ĠMini": 3476,
      "ĠScan": 3477,
      "ĠVi": 3478,
      "ĠLÃª": 3479,
      "ĠGam": 3480,
      "ĠHafele": 3481,
      "ĠDao": 3482,
      "ĠPP": 3483,
      "Ġháº£i": 3484,
      "eme": 3485,
      "Ġsáº¯m": 3486,
      "ĠNgoáº¡i": 3487,
      "ĠNgÆ°á»Ŀi": 3488,
      "ĠTráº§n": 3489,
      "Ġ27": 3490,
      "orce": 3491,
      "ĠEJ": 3492,
      "Ġ350": 3493,
      "ĠChar": 3494,
      "ĠkhÃºc": 3495,
      "ĠOx": 3496,
      "ĠThá»ĭ": 3497,
      "ThÃłnh": 3498,
      "out": 3499,
      "ĠStan": 3500,
      "ĠStar": 3501,
      "ĠSeagate": 3502,
      "ĠLuáºŃt": 3503,
      "Ġháº§m": 3504,
      "ĠCADA": 3505,
      "Ð¾Ð": 3506,
      "Ġspandex": 3507,
      "ĠBelkin": 3508,
      "ĠWebcam": 3509,
      "Ġomega": 3510,
      "Ġadapter": 3511,
      "2000": 3512,
      "Drive": 3513,
      "ES": 3514,
      "kg": 3515,
      "up": 3516,
      "Ġáº¥y": 3517,
      "Ńi": 3518,
      "ĠcáºŃn": 3519,
      "Ġláº¡c": 3520,
      "ĠmÃ¨": 3521,
      "Ġbo": 3522,
      "Ġbáº¯p": 3523,
      "ĠdÆ°á»£c": 3524,
      "ĠTC": 3525,
      "ĠTáº§n": 3526,
      "ĠCard": 3527,
      "Ġxuá»ĳng": 3528,
      "Ġnhá»©c": 3529,
      "ĠBen": 3530,
      "ĠBÃ³ng": 3531,
      "ĠBit": 3532,
      "ĠBur": 3533,
      "anel": 3534,
      "ĠMX": 3535,
      "ĠMic": 3536,
      "ĠMart": 3537,
      "ĠSÃ¡p": 3538,
      "ĠSim": 3539,
      "ĠSure": 3540,
      "ĠSPF": 3541,
      "inal": 3542,
      "ĠLight": 3543,
      "ĠGC": 3544,
      "ĠDel": 3545,
      "ĠPL": 3546,
      "Ġgiá»įng": 3547,
      "Ġgiá»įt": 3548,
      "ĠAmer": 3549,
      "ĠGiÃ¡o": 3550,
      "Ġ1800": 3551,
      "ĠRem": 3552,
      "ĠTrue": 3553,
      "itton": 3554,
      "Ġ32": 3555,
      "ĠOld": 3556,
      "ood": 3557,
      "ĠIPS": 3558,
      "ĠSá»±": 3559,
      "Ġluá»ĵng": 3560,
      "agon": 3561,
      "ĠNháº«n": 3562,
      "Ġmáº¹o": 3563,
      "ĠLongines": 3564,
      "Ġbucket": 3565,
      "ĠKá»·": 3566,
      "ĠtÃ´m": 3567,
      "GiÃły": 3568,
      "ĠtuÃ¢n": 3569,
      "ĠiPhone": 3570,
      "ĠSteel": 3571,
      "ĠVuitton": 3572,
      "ĠLouis": 3573,
      "ĠÃĤm": 3574,
      "300": 3575,
      "56": 3576,
      "DÃ¢y": 3577,
      "HT": 3578,
      "Náº¿u": 3579,
      "SL": 3580,
      "de": 3581,
      "les": 3582,
      "Ġov": 3583,
      "ģnh": 3584,
      "Ġcá»ĳt": 3585,
      "Ġcocktail": 3586,
      "Ġnáº¡p": 3587,
      "ĠÄĳáº¡o": 3588,
      "ĠÄĳÃło": 3589,
      "ĠÄĳÃªm": 3590,
      "ĠlÆ°á»Ľt": 3591,
      "Ġliu": 3592,
      "Ġcá»ı": 3593,
      "ĠTarg": 3594,
      "ĠCal": 3595,
      "ĠxÃ³a": 3596,
      "ĠBÃ´ng": 3597,
      "ĠBáº¿n": 3598,
      "amy": 3599,
      "ĠÄĲÃ¡": 3600,
      "ĠMac": 3601,
      "ĠMax": 3602,
      "ĠSÄ©": 3603,
      "Ġnháº¯": 3604,
      "Ġmá»įt": 3605,
      "ĠKi": 3606,
      "Ġná»ĩm": 3607,
      "ĠPen": 3608,
      "ĠAT": 3609,
      "emon": 3610,
      "Ġphot": 3611,
      "ĠGiÆ°á»Ŀng": 3612,
      "ĠRay": 3613,
      "ĠÃĿ": 3614,
      "Ġcháº¿t": 3615,
      "Ġtáº¿t": 3616,
      "Ġnghá»ģ": 3617,
      "ome": 3618,
      "Ġhá»Ĺn": 3619,
      "ĠChá»©c": 3620,
      "ĠJohn": 3621,
      "ĠPhan": 3622,
      "ĠPhÃ¡t": 3623,
      "ĠDá»±a": 3624,
      "uma": 3625,
      "edia": 3626,
      "ĠTá»·": 3627,
      "ĠTá»Ń": 3628,
      "ĠloÃ£ng": 3629,
      "mich": 3630,
      "ĠElmich": 3631,
      "ĠBá»ī": 3632,
      "ĠBraun": 3633,
      "ĠAcer": 3634,
      "issot": 3635,
      "ampers": 3636,
      "ĠiPad": 3637,
      "ĠDVD": 3638,
      "ĠOmega": 3639,
      "ĠOrig": 3640,
      "Quáº§n": 3641,
      "ĠPrevent": 3642,
      "ĠELT": 3643,
      "Ġcomp": 3644,
      "ĠOxford": 3645,
      "03": 3646,
      "AT": 3647,
      "DF": 3648,
      "RA": 3649,
      "XM": 3650,
      "gear": 3651,
      "ne": 3652,
      "tb": 3653,
      "¡ch": 3654,
      "Ãģ": 3655,
      "Ġong": 3656,
      "Ġtua": 3657,
      "Ġnon": 3658,
      "Ġlá»Ļ": 3659,
      "Ġlem": 3660,
      "ĠviÃªm": 3661,
      "ĠbÆ¡": 3662,
      "ĠhÅ©": 3663,
      "Ġhuá»ĳng": 3664,
      "Ġnhiá»ĩm": 3665,
      "Ġnhuyá»ħn": 3666,
      "ĠTÆ°Æ¡ng": 3667,
      "ĠTÃ¢m": 3668,
      "ĠTissot": 3669,
      "ĠngÃłnh": 3670,
      "ĠCD": 3671,
      "ĠNÄĥng": 3672,
      "Ġrang": 3673,
      "ĠBÃłi": 3674,
      "ĠBob": 3675,
      "ĠMe": 3676,
      "ĠMy": 3677,
      "ĠSJ": 3678,
      "ĠSw": 3679,
      "ĠSan": 3680,
      "ĠSaphi": 3681,
      "ĠVÅ©": 3682,
      "ero": 3683,
      "ĠDÃ¹": 3684,
      "ĠPe": 3685,
      "ĠPuma": 3686,
      "ĠPampers": 3687,
      "ĠTham": 3688,
      "ĠTherm": 3689,
      "ott": 3690,
      "ĠnghiÃªng": 3691,
      "ĠNghá»ĩ": 3692,
      "Ġká»ģnh": 3693,
      "ican": 3694,
      "ĠEnglish": 3695,
      "ĠWH": 3696,
      "ĠXu": 3697,
      "ĠXem": 3698,
      "oss": 3699,
      "ĠNhu": 3700,
      "ĠUSA": 3701,
      "tre": 3702,
      "ĠJack": 3703,
      "ream": 3704,
      "ĠPhÆ°á»Ľc": 3705,
      "ĠTá»«ng": 3706,
      "ĠArist": 3707,
      "ĠSennheiser": 3708,
      "ĠHá»į": 3709,
      "ĠOne": 3710,
      "Ġlá»ĩch": 3711,
      "NgoÃłi": 3712,
      "Ġcroptop": 3713,
      "ĠNgá»¯": 3714,
      "ĠNgá»įc": 3715,
      "ĠCleans": 3716,
      "ĠNhÃ£n": 3717,
      "ĠKingston": 3718,
      "ĠPedro": 3719,
      "Ġflash": 3720,
      "ĠBitis": 3721,
      "Ãģo": 3722,
      "ĠSaphir": 3723,
      "ĠAristino": 3724,
      "95": 3725,
      "Ban": 3726,
      "Force": 3727,
      "Mart": 3728,
      "UHT": 3729,
      "bÃł": 3730,
      "iqu": 3731,
      "se": 3732,
      "uá»Ļt": 3733,
      "©n": 3734,
      "ĠÃ¡n": 3735,
      "ĠÄĳÃ¹i": 3736,
      "Ġmiá»ģn": 3737,
      "Ġbody": 3738,
      "Ġkáº½": 3739,
      "ĠhÃł": 3740,
      "Ġgiai": 3741,
      "Ġchanh": 3742,
      "Ġcá»ĵng": 3743,
      "ĠTá»ĵn": 3744,
      "ĠkhÃ¡m": 3745,
      "Ġsá»ĵi": 3746,
      "ĠrÃ¡p": 3747,
      "Ġtá»ĩ": 3748,
      "ĠÄĲÃŃch": 3749,
      "ĠÄĲÃºng": 3750,
      "ĠMo": 3751,
      "ĠMob": 3752,
      "ĠMama": 3753,
      "ĠMarketing": 3754,
      "Ãºm": 3755,
      "ĠSa": 3756,
      "ĠSPA": 3757,
      "ĠchÃ¢m": 3758,
      "ĠGÃ³c": 3759,
      "ĠGent": 3760,
      "ĠHá»ĵ": 3761,
      "ĠHáº¡t": 3762,
      "ĠHá»ĵng": 3763,
      "eram": 3764,
      "ĠPass": 3765,
      "ĠphiÃªu": 3766,
      "ĠphÃ¡i": 3767,
      "aster": 3768,
      "ĠkhoÃ¡i": 3769,
      "ĠRob": 3770,
      "ita": 3771,
      "ital": 3772,
      "ork": 3773,
      "ĠEH": 3774,
      "ĠQuyá»ģn": 3775,
      "att": 3776,
      "ĠChanel": 3777,
      "ĠXanh": 3778,
      "aco": 3779,
      "ĠNha": 3780,
      "Ġcarbon": 3781,
      "ĠPhÆ°Æ¡ng": 3782,
      "ove": 3783,
      "ĠMicrosoft": 3784,
      "ĠIII": 3785,
      "perX": 3786,
      "ĠRTX": 3787,
      "Tech": 3788,
      "ĠEcco": 3789,
      "ĠPolyester": 3790,
      "Ġuá»ĳn": 3791,
      "ĠStanley": 3792,
      "ĠSimp": 3793,
      "ĠPLUS": 3794,
      "ĠSteelSeries": 3795,
      "Ġnháº¯n": 3796,
      "ĠGentle": 3797,
      "7000": 3798,
      "Bá»Ļ": 3799,
      "EX": 3800,
      "dy": 3801,
      "ml": 3802,
      "nin": 3803,
      "raf": 3804,
      "vin": 3805,
      "âĤ": 3806,
      "Ġ_": 3807,
      "ĠcÃ¡nh": 3808,
      "Ġtoner": 3809,
      "ĠnÃ£o": 3810,
      "ĠÄĳáºŃy": 3811,
      "ĠÄĳáº©y": 3812,
      "Ġmáº¡n": 3813,
      "Ġst": 3814,
      "ĠkÃªnh": 3815,
      "Ġkáº¹t": 3816,
      "ĠphÃ´ng": 3817,
      "ĠthÃ¡ch": 3818,
      "Ġthai": 3819,
      "ĠgiáºŃt": 3820,
      "ĠTim": 3821,
      "Ġngá»Ļ": 3822,
      "Æ°á»Ŀm": 3823,
      "ĠNew": 3824,
      "ĠMáº¡ng": 3825,
      "ĠMag": 3826,
      "ĠMbps": 3827,
      "Ġsá»ĳt": 3828,
      "ĠSur": 3829,
      "ĠSlim": 3830,
      "inom": 3831,
      "Ġmá»©t": 3832,
      "ĠKle": 3833,
      "ĠKáº¹o": 3834,
      "ĠLev": 3835,
      "ĠDÃ¹ng": 3836,
      "ĠPer": 3837,
      "ĠPark": 3838,
      "Ġbá»ĭt": 3839,
      "ĠNgÃ´n": 3840,
      "ĠRol": 3841,
      "ĠTráº»": 3842,
      "ĠTrium": 3843,
      "ola": 3844,
      "opy": 3845,
      "Ġthá»ĭnh": 3846,
      "Ġquáº£ng": 3847,
      "let": 3848,
      "ĠWD": 3849,
      "ĠFac": 3850,
      "Ġquyá»ĥn": 3851,
      "Ġ450": 3852,
      "ÄĲÆ°á»Ŀng": 3853,
      "ill": 3854,
      "ylus": 3855,
      "ode": 3856,
      "ign": 3857,
      "ĠPhong": 3858,
      "axi": 3859,
      "berry": 3860,
      "ĠYog": 3861,
      "ocopy": 3862,
      "ĠchÃ¹m": 3863,
      "ĠCá»©u": 3864,
      "ĠArm": 3865,
      "ĠSens": 3866,
      "affe": 3867,
      "ĠPrada": 3868,
      "ĠHyperX": 3869,
      "ĠNá»Ł": 3870,
      "ĠMontb": 3871,
      "BLK": 3872,
      "Ġtá»ıa": 3873,
      "Ġphotocopy": 3874,
      "ĠOriginal": 3875,
      "âĤ«": 3876,
      "ĠTriumph": 3877,
      "14": 3878,
      "Com": 3879,
      "DS": 3880,
      "Disk": 3881,
      "II": 3882,
      "MO": 3883,
      "PI": 3884,
      "RW": 3885,
      "SK": 3886,
      "VC": 3887,
      "ipp": 3888,
      "ms": 3889,
      "nis": 3890,
      "Ñĥ": 3891,
      "Ñĭ": 3892,
      "ĠÃ¢u": 3893,
      "Ġtáº£": 3894,
      "ĠÄĳá»Ļt": 3895,
      "ĠÄĳai": 3896,
      "ĠÄĳÃ²i": 3897,
      "Ġviá»ģn": 3898,
      "Ġmá»Ļc": 3899,
      "Ġmaxi": 3900,
      "Ġgai": 3901,
      "ĠthÃ³i": 3902,
      "ĠnhÃ¡i": 3903,
      "ĠgiÃł": 3904,
      "Ġhá»©ng": 3905,
      "ĠTo": 3906,
      "ĠTu": 3907,
      "ĠTáº¡i": 3908,
      "ĠphÃŃa": 3909,
      "ĠrÃŃt": 3910,
      "ĠBu": 3911,
      "ĠMang": 3912,
      "ĠMÆ°a": 3913,
      "ĠMBA": 3914,
      "ĠSE": 3915,
      "ĠSeries": 3916,
      "inn": 3917,
      "ĠKS": 3918,
      "ĠLac": 3919,
      "ĠHuy": 3920,
      "ĠHáº£o": 3921,
      "....": 3922,
      "ernet": 3923,
      "ĠPEA": 3924,
      "ender": 3925,
      "all": 3926,
      "Ġtháº¥u": 3927,
      "ĠnghÄ©": 3928,
      "ĠNgÆ°á»£c": 3929,
      "ick": 3930,
      "ics": 3931,
      "ĠÃįt": 3932,
      "Ġsoáº¡n": 3933,
      "ĠQuiet": 3934,
      "lex": 3935,
      "ĠCho": 3936,
      "oom": 3937,
      "ĠVá»ī": 3938,
      "ose": 3939,
      "ĠThá»ĳng": 3940,
      "ĠNhÆ°ng": 3941,
      "lux": 3942,
      "ĠChá»ī": 3943,
      "urt": 3944,
      "Ġwebcam": 3945,
      "Ġluá»Ļc": 3946,
      "Ġ1080": 3947,
      "ĠProbi": 3948,
      "ĠCá»ķ": 3949,
      "ĠchÃ¬a": 3950,
      "ĠThÃŃch": 3951,
      "ĠlÃ£o": 3952,
      "Ġ1980": 3953,
      "ĠGiá»¯": 3954,
      "Books": 3955,
      "achi": 3956,
      "ĠVietnam": 3957,
      "Ġtannin": 3958,
      "encel": 3959,
      "ĠJotun": 3960,
      "FLO": 3961,
      "ĠAmerican": 3962,
      "ĠTargus": 3963,
      "ĠBobby": 3964,
      "ĠPassport": 3965,
      "ĠRolex": 3966,
      "ĠMontblan": 3967,
      "ĠPEAFLO": 3968,
      "86": 3969,
      "900": 3970,
      "KhÃ´ng": 3971,
      "RO": 3972,
      "So": 3973,
      "ZX": 3974,
      "gsm": 3975,
      "ip": 3976,
      "ior": 3977,
      "jama": 3978,
      "ly": 3979,
      "lor": 3980,
      "men": 3981,
      "ning": 3982,
      "to": 3983,
      "Ġ<": 3984,
      "Ĥn": 3985,
      "Ġcay": 3986,
      "Ġcac": 3987,
      "ĠÄĳáº£o": 3988,
      "ĠlÃºa": 3989,
      "ĠvÃ²": 3990,
      "Ġváº¡t": 3991,
      "Ġsim": 3992,
      "ĠbáºŃ": 3993,
      "Ġbáº¡ch": 3994,
      "ĠbÃ£o": 3995,
      "ĠbÃºn": 3996,
      "Ġdáº·m": 3997,
      "ĠhÃ¡t": 3998,
      "ĠÄĳá»¥c": 3999,
      "ĠTV": 4000,
      "ĠTiáº¿t": 4001,
      "ĠTiger": 4002,
      "Ġngáº¡i": 4003,
      "ĠNylon": 4004,
      "ĠquÃłng": 4005,
      "ĠBar": 4006,
      "Ġtá»¥": 4007,
      "ana": 4008,
      "ĠMF": 4009,
      "ĠSiÃªu": 4010,
      "inen": 4011,
      "Ġnháº·": 4012,
      "Ġtháº£i": 4013,
      "Ġtháº¯c": 4014,
      "ĠVA": 4015,
      "Ġtrá»įn": 4016,
      "ĠGe": 4017,
      "Ġchiáº¿m": 4018,
      "ĠAm": 4019,
      "ĠAudio": 4020,
      "are": 4021,
      "ĠThanh": 4022,
      "ĠnghÄ©nh": 4023,
      "ĠNgÃ¢n": 4024,
      "Ġchun": 4025,
      "Ġkhá»Ľp": 4026,
      "ĠEV": 4027,
      "ĠEd": 4028,
      "ĠquÃ¡n": 4029,
      "Ġ35": 4030,
      "ĠQuai": 4031,
      "ĠChr": 4032,
      "ĠChiáº¿n": 4033,
      "ĠXá»": 4034,
      "ĠkhÃ¢u": 4035,
      "Ġ45": 4036,
      "oste": 4037,
      "ĠMá»¥c": 4038,
      "ÄĲá»": 4039,
      "ĠKhoáº£ng": 4040,
      "ĠluáºŃn": 4041,
      "ĠSuper": 4042,
      "abica": 4043,
      "igital": 4044,
      "ĠPhá»¥ng": 4045,
      "ĠCanvas": 4046,
      "ĠArabica": 4047,
      "Ġ1200": 4048,
      "ĠTháº»": 4049,
      "Ġ90": 4050,
      "Ġ99": 4051,
      "ĠElite": 4052,
      "ĠSport": 4053,
      "ĠSound": 4054,
      "Ġtuáº§n": 4055,
      "abyte": 4056,
      "ĠDulux": 4057,
      "ĠWatch": 4058,
      "ĠCross": 4059,
      "ĠthÃ´i": 4060,
      "chael": 4061,
      "fiber": 4062,
      "ĠPatagon": 4063,
      "Ġsalad": 4064,
      "ĠBenQ": 4065,
      "ĠBurberry": 4066,
      "ĠSurf": 4067,
      "ĠKlein": 4068,
      "Comfort": 4069,
      "ĠLacoste": 4070,
      "ĠQuietComfort": 4071,
      "ĠMontblanc": 4072,
      "ĠbáºŃc": 4073,
      "ĠPatagonia": 4074,
      "37": 4075,
      "42": 4076,
      "88": 4077,
      "97": 4078,
      "Há»Ļp": 4079,
      "MP": 4080,
      "Pod": 4081,
      "Phá»¥": 4082,
      "RI": 4083,
      "Sáº£n": 4084,
      "con": 4085,
      "fr": 4086,
      "fps": 4087,
      "ib": 4088,
      "lay": 4089,
      "yal": 4090,
      "ze": 4091,
      "¯p": 4092,
      "ĠÆ°ng": 4093,
      "á»Ńa": 4094,
      "áº©m": 4095,
      "Ġcaffe": 4096,
      "Ġtáº£ng": 4097,
      "Ġtáº¯n": 4098,
      "ĠtÄ©nh": 4099,
      "ĠnÃ¡t": 4100,
      "Ġnáº¿m": 4101,
      "ĠnÃºm": 4102,
      "Ġlai": 4103,
      "Ġviá»ĩn": 4104,
      "ĠsÃºc": 4105,
      "Ġbas": 4106,
      "ĠgÃ³p": 4107,
      "Ġthá»Ľt": 4108,
      "Ġcha": 4109,
      "ĠÄĳá»«ng": 4110,
      "ĠTS": 4111,
      "ĠTÃ¢y": 4112,
      "ĠTáº©y": 4113,
      "ĠTour": 4114,
      "ĠngÆ°á»£c": 4115,
      "ĠngÃ¢m": 4116,
      "ĠCáº§n": 4117,
      "Ġrá»ĳi": 4118,
      "Ġráº¯n": 4119,
      "ance": 4120,
      "ĠMáº·c": 4121,
      "ĠMÃ³c": 4122,
      "ĠMSI": 4123,
      "Ã¬a": 4124,
      "ĠKar": 4125,
      "Ġtrá»¥c": 4126,
      "Ġá»ŀ": 4127,
      "Ġgá»«ng": 4128,
      "ĠGr": 4129,
      "ĠHáº§u": 4130,
      "ĠDigital": 4131,
      "ĠAS": 4132,
      "ĠAt": 4133,
      "Ġ1500": 4134,
      "Ġnhuá»Ļm": 4135,
      "alt": 4136,
      "hium": 4137,
      "hield": 4138,
      "ĠRed": 4139,
      "Ġinternet": 4140,
      "Ġká»·": 4141,
      "ithium": 4142,
      "ole": 4143,
      "ĠUF": 4144,
      "ĠChiá»ģu": 4145,
      "ister": 4146,
      "Ġemail": 4147,
      "Ġxá»ī": 4148,
      "ife": 4149,
      "ĠÄĲá»ĩm": 4150,
      "ĠLá»¥a": 4151,
      "aker": 4152,
      "ouble": 4153,
      "ĠBlue": 4154,
      "ĠmicroSD": 4155,
      "ĠCá»©ng": 4156,
      "ĠCá»Ńa": 4157,
      "ĠArch": 4158,
      "ĠAirPod": 4159,
      "ĠRoyal": 4160,
      "ĠROG": 4161,
      "ĠClear": 4162,
      "ĠMaster": 4163,
      "ĠVui": 4164,
      "ĠLaur": 4165,
      "ĠKhuÃ´n": 4166,
      "Ð°Ð": 4167,
      "amboo": 4168,
      "ĠDolce": 4169,
      "ĠGaming": 4170,
      "ĠTCL": 4171,
      "ĠRemax": 4172,
      "ĠCleanser": 4173,
      "Ġkáº½m": 4174,
      "Ġtá»ĩp": 4175,
      "eramic": 4176,
      "raft": 4177,
      "ĠvÃ²m": 4178,
      "ĠGeForce": 4179,
      "ĠAirPods": 4180,
      "43": 4181,
      "HC": 4182,
      "KÃŃch": 4183,
      "LB": 4184,
      "LÃ²": 4185,
      "MS": 4186,
      "OS": 4187,
      "SO": 4188,
      "St": 4189,
      "VI": 4190,
      "bit": 4191,
      "cess": 4192,
      "ier": 4193,
      "nor": 4194,
      "Ñģ": 4195,
      "Ġáº£o": 4196,
      "ĠÃ¡m": 4197,
      "īnh": 4198,
      "ĠtÆ°á»Ľi": 4199,
      "ĠÄĤn": 4200,
      "ĠÄĳÆ°Æ¡ng": 4201,
      "ĠvÄ©": 4202,
      "Ġbai": 4203,
      "ĠgáºŃp": 4204,
      "Ġgáº§y": 4205,
      "Ġduá»": 4206,
      "ĠthÆ¡": 4207,
      "Ġthau": 4208,
      "Ġcháº¥n": 4209,
      "Ġdá»ĵi": 4210,
      "ĠngÃ´": 4211,
      "Ġngá»ĵi": 4212,
      "ĠxÃ´i": 4213,
      "Ġchol": 4214,
      "ĠÄĲi": 4215,
      "ĠÄĲáº·t": 4216,
      "ĠMJ": 4217,
      "ĠMat": 4218,
      "iness": 4219,
      "ĠVáºŃt": 4220,
      "ĠVers": 4221,
      "ĠKeo": 4222,
      "ĠLe": 4223,
      "ĠLiÃªn": 4224,
      "ĠhÃ¢m": 4225,
      "001": 4226,
      "ĠHC": 4227,
      "ĠDW": 4228,
      "ĠPhá»": 4229,
      "ĠPort": 4230,
      "ĠAQ": 4231,
      "ĠThiá»ĩp": 4232,
      "Ġsáº¯n": 4233,
      "alur": 4234,
      "Ġngá»¥": 4235,
      "ĠNgÃ²i": 4236,
      "ity": 4237,
      "Ġkhá»ķ": 4238,
      "ĠcÃ¡n": 4239,
      "Ġ3000": 4240,
      "ĠQuáº£": 4241,
      "ĠWeat": 4242,
      "usiness": 4243,
      "ĠthÃªu": 4244,
      "ĠSá»£i": 4245,
      "ĠMá»ģm": 4246,
      "ĠInternet": 4247,
      "eed": 4248,
      "lly": 4249,
      "ĠZe": 4250,
      "ĠSenko": 4251,
      "ĠSpandex": 4252,
      "ĠConst": 4253,
      "ĠMichael": 4254,
      "ĠMasan": 4255,
      "ĠBase": 4256,
      "Thá»Ŀi": 4257,
      "ĠTeka": 4258,
      "ĠDowny": 4259,
      "ĠCharles": 4260,
      "ĠCalvin": 4261,
      "ĠKiwi": 4262,
      "Ġstylus": 4263,
      "Ġbasic": 4264,
      "Ġduá»Ĺi": 4265,
      "ĠPortable": 4266,
      "aluronic": 4267,
      "*:": 4268,
      "++": 4269,
      "--": 4270,
      "32": 4271,
      "51": 4272,
      "Bao": 4273,
      "Cam": 4274,
      "Panasonic": 4275,
      "SÃ¡ch": 4276,
      "TS": 4277,
      "XC": 4278,
      "ec": 4279,
      "ei": 4280,
      "ft": 4281,
      "ken": 4282,
      "ner": 4283,
      "oi": 4284,
      "pe": 4285,
      "ster": 4286,
      "solu": 4287,
      "tu": 4288,
      "ÑĤ": 4289,
      "ĊĊ": 4290,
      "ĠĊĠ": 4291,
      "áº³ng": 4292,
      "ĠÄĳem": 4293,
      "ĠÄĳáº¡p": 4294,
      "Ġlan": 4295,
      "Ġláº«n": 4296,
      "ĠvÃ³n": 4297,
      "ĠmAh": 4298,
      "Ġson": 4299,
      "ĠsÃłnh": 4300,
      "Ġbox": 4301,
      "hÃ©": 4302,
      "Ġtráº¡i": 4303,
      "ĠtrÆ°á»Łng": 4304,
      "ĠtrÃºc": 4305,
      "ĠchÃłng": 4306,
      "ĠÄĳá»Ľi": 4307,
      "Ġvá»±ng": 4308,
      "Ġcá»Ŀ": 4309,
      "ĠTea": 4310,
      "Ġsá»£": 4311,
      "ĠNT": 4312,
      "ĠNÃªu": 4313,
      "ĠNest": 4314,
      "ĠrÃł": 4315,
      "ĠrÆ°á»Ŀm": 4316,
      "Ġtá»©c": 4317,
      "ami": 4318,
      "ĠgiÃ¡m": 4319,
      "ĠÄĲa": 4320,
      "ĠMilk": 4321,
      "Ġhoáº¡ch": 4322,
      "ĠSai": 4323,
      "ĠVfr": 4324,
      "ĠKD": 4325,
      "ĠKe": 4326,
      "ĠLS": 4327,
      "ĠLÃ²ng": 4328,
      "ĠGeo": 4329,
      "ĠGoo": 4330,
      "Ġkháº¯p": 4331,
      "ĠHoc": 4332,
      "ĠDes": 4333,
      "ĠDÄ©": 4334,
      "ĠDouble": 4335,
      "ĠPN": 4336,
      "ĠPT": 4337,
      "ĠPu": 4338,
      "ĠPVC": 4339,
      "ĠphÃ³ng": 4340,
      "ĠGiáº£i": 4341,
      "ĠGift": 4342,
      "ari": 4343,
      "arry": 4344,
      "ĠNgh": 4345,
      "ĠES": 4346,
      "ĠEv": 4347,
      "Ġtráº»o": 4348,
      "ĠcÃ¡m": 4349,
      "Ġsoi": 4350,
      "ross": 4351,
      "ĠWil": 4352,
      "ĠWester": 4353,
      "ĠWind": 4354,
      "ĠkhÃŃt": 4355,
      "ĠVá»£t": 4356,
      "ling": 4357,
      "Ġchip": 4358,
      "ÄĲá»ĵ": 4359,
      "Ġtuyáº¿t": 4360,
      "ĠChá»ķi": 4361,
      "ĠJean": 4362,
      "Ġ10000": 4363,
      "ĠIns": 4364,
      "Theo": 4365,
      "oct": 4366,
      "esterol": 4367,
      "ĠZK": 4368,
      "ofi": 4369,
      "phy": 4370,
      "Ġtuá»Ļt": 4371,
      "ĠAct": 4372,
      "ĠClean": 4373,
      "ĠQuyáº¿n": 4374,
      "ĠEnerg": 4375,
      "ĠFris": 4376,
      "ĠMerr": 4377,
      "ĠAbsolu": 4378,
      "ĠSanDisk": 4379,
      "ĠXuÃ¢n": 4380,
      "ĠFacial": 4381,
      "ĠToÃ¡n": 4382,
      "Ġnháº·n": 4383,
      "ĠSurface": 4384,
      "ĠKarofi": 4385,
      "Star": 4386,
      "Ġcholesterol": 4387,
      "ĠVfresh": 4388,
      "ĠWestern": 4389,
      "%.": 4390,
      "17": 4391,
      "58": 4392,
      "62": 4393,
      "DW": 4394,
      "Jet": 4395,
      "Kháº": 4396,
      "Lá»": 4397,
      "Ná»ĵi": 4398,
      "Power": 4399,
      "VÃŃ": 4400,
      "cs": 4401,
      "gi": 4402,
      "gle": 4403,
      "nap": 4404,
      "nica": 4405,
      "oáº£i": 4406,
      "yth": 4407,
      "zy": 4408,
      "±n": 4409,
      "Å©ng": 4410,
      "Ġz": 4411,
      "ĠÆ¡i": 4412,
      "á»·": 4413,
      "Ġcá»Ļt": 4414,
      "Ġcáº©m": 4415,
      "Ġta": 4416,
      "Ġtiá»ĩm": 4417,
      "Ġtencel": 4418,
      "ĠÄĳuá»ķi": 4419,
      "Ġlam": 4420,
      "Ġláº¯c": 4421,
      "Ã¡u": 4422,
      "Ġvan": 4423,
      "Ġmáº¡c": 4424,
      "Ġmáº·n": 4425,
      "ĠsÃłng": 4426,
      "Ġsáº£ng": 4427,
      "Ġkg": 4428,
      "Ġgl": 4429,
      "Ġhan": 4430,
      "ĠgiÃ¢y": 4431,
      "ĠÄĳá»©c": 4432,
      "ĠTÃ´ng": 4433,
      "ĠTiáº¿ng": 4434,
      "Ġchá»ĵng": 4435,
      "Ġpháº¥n": 4436,
      "ĠnÃłn": 4437,
      "ĠNok": 4438,
      "ĠNipp": 4439,
      "ĠxÃ´": 4440,
      "Ġxáº¥u": 4441,
      "ĠrÃ£": 4442,
      "ĠrÃ¨m": 4443,
      "ĠBoo": 4444,
      "ĠBÃ¬a": 4445,
      "ĠÄĲiá»ĥn": 4446,
      "ĠSm": 4447,
      "ĠVan": 4448,
      "ĠKak": 4449,
      "ĠKnor": 4450,
      "ĠLinh": 4451,
      "ĠLot": 4452,
      "Ġá»Ľt": 4453,
      "Ġgá»Ńi": 4454,
      "ĠGo": 4455,
      "ĠHerm": 4456,
      "erre": 4457,
      "ĠDry": 4458,
      "ĠDora": 4459,
      "ĠDove": 4460,
      "ĠDPI": 4461,
      "ĠPA": 4462,
      "ĠPE": 4463,
      "ĠPad": 4464,
      "ĠPur": 4465,
      "ĠPack": 4466,
      "Ġháº±n": 4467,
      "end": 4468,
      "emote": 4469,
      "ĠGiÃºp": 4470,
      "ĠNghÃ©": 4471,
      "ĠRB": 4472,
      "ĠRinn": 4473,
      "Ġ2200": 4474,
      "itive": 4475,
      "oride": 4476,
      "els": 4477,
      "ĠWash": 4478,
      "ĠWork": 4479,
      "Ġrá»¥ng": 4480,
      "usta": 4481,
      "Ġvirus": 4482,
      "ĠhÃ´n": 4483,
      "luoride": 4484,
      "ĠJBL": 4485,
      "Ġwatt": 4486,
      "ĠluáºŃt": 4487,
      "ĠSup": 4488,
      "Ġtá»īnh": 4489,
      "bert": 4490,
      "ake": 4491,
      "Ġmicrofiber": 4492,
      "ave": 4493,
      "ows": 4494,
      "egg": 4495,
      "ĠKháº©u": 4496,
      "USB": 4497,
      "ĠDior": 4498,
      "ĠHoÃłn": 4499,
      "242": 4500,
      "mere": 4501,
      "namic": 4502,
      "ĠPierre": 4503,
      "ĠExtra": 4504,
      "ĠCoolm": 4505,
      "ĠScholl": 4506,
      "ĠModa": 4507,
      "ashion": 4508,
      "Ġolive": 4509,
      "Ġoliu": 4510,
      "ĠTotal": 4511,
      "ĠCardin": 4512,
      "ĠPeps": 4513,
      "ĠMobi": 4514,
      "ĠRobusta": 4515,
      "ĠParker": 4516,
      "ĠYogurt": 4517,
      "ĠChrist": 4518,
      "ĠTourister": 4519,
      "ĠASUS": 4520,
      "Ġboxer": 4521,
      "ĠDesk": 4522,
      "ĠJeans": 4523,
      "ĠMerries": 4524,
      "ĠAbsolute": 4525,
      "Kháº£": 4526,
      "ĠNokia": 4527,
      "ĠNippon": 4528,
      "ĠKnorr": 4529,
      "ĠDoraemon": 4530,
      "ĠRinnai": 4531,
      "+:": 4532,
      "02": 4533,
      "180": 4534,
      "1200": 4535,
      "52": 4536,
      "67": 4537,
      "Chá»": 4538,
      "DÃ©p": 4539,
      "IK": 4540,
      "IN": 4541,
      "IP": 4542,
      "LA": 4543,
      "MÃ¹i": 4544,
      "ON": 4545,
      "Port": 4546,
      "Quy": 4547,
      "Sams": 4548,
      "TPC": 4549,
      "UA": 4550,
      "UN": 4551,
      "UP": 4552,
      "WD": 4553,
      "bout": 4554,
      "com": 4555,
      "ge": 4556,
      "gon": 4557,
      "gabyte": 4558,
      "ili": 4559,
      "ji": 4560,
      "rÃºt": 4561,
      "sh": 4562,
      "vn": 4563,
      "yn": 4564,
      "Ġ[": 4565,
      "Ġung": 4566,
      "áº¬": 4567,
      "Ġcáº£n": 4568,
      "ĠcÃłnh": 4569,
      "Ġceramic": 4570,
      "ĠtÄĥm": 4571,
      "Ġnu": 4572,
      "Ġninh": 4573,
      "ĠÄĳinh": 4574,
      "Ġliá»ģu": 4575,
      "ĠmÆ¡": 4576,
      "Ġmanh": 4577,
      "ĠbÄĥn": 4578,
      "Ġbá»ĳi": 4579,
      "Ġbri": 4580,
      "ĠbÃºa": 4581,
      "Ġbusiness": 4582,
      "Ġkiá»": 4583,
      "Ġkate": 4584,
      "ĠdÃ£": 4585,
      "ĠdÃło": 4586,
      "ĠtrÃłm": 4587,
      "Ġvá»¯ng": 4588,
      "ĠTN": 4589,
      "ĠTiá»ĩn": 4590,
      "ĠTol": 4591,
      "ĠTou": 4592,
      "Ġdá»įc": 4593,
      "ĠCol": 4594,
      "ĠNoct": 4595,
      "Ġrong": 4596,
      "Ġrua": 4597,
      "ĠBe": 4598,
      "ĠBre": 4599,
      "ĠBPA": 4600,
      "ĠMK": 4601,
      "ĠMu": 4602,
      "ĠMedia": 4603,
      "ĠSM": 4604,
      "ĠSÃłi": 4605,
      "ĠSal": 4606,
      "ĠSing": 4607,
      "Ġtháº¡ch": 4608,
      "ĠVÃłng": 4609,
      "ĠVim": 4610,
      "ĠViv": 4611,
      "ĠVitamin": 4612,
      "Ġná»Ł": 4613,
      "Ġgá»¡": 4614,
      "ĠGT": 4615,
      "ĠGÃ²n": 4616,
      "ĠGreen": 4617,
      "ĠHÃłm": 4618,
      "ĠHSK": 4619,
      "ĠDark": 4620,
      "ĠDenim": 4621,
      "oto": 4622,
      "ĠkhoÄĥn": 4623,
      "Ġtiáº¿u": 4624,
      "ĠRaw": 4625,
      "ĠTre": 4626,
      "ĠTráº§m": 4627,
      "ĠTrans": 4628,
      "ĠEr": 4629,
      "olac": 4630,
      "ĠWal": 4631,
      "atri": 4632,
      "Ġcua": 4633,
      "Ġrá»ķ": 4634,
      "ĠFX": 4635,
      "ĠFen": 4636,
      "ĠFoc": 4637,
      "ĠOil": 4638,
      "Ġxá»ĭt": 4639,
      "ĠIK": 4640,
      "lip": 4641,
      "ĠThá»Ń": 4642,
      "treme": 4643,
      "ĠNÃ³i": 4644,
      "ĠInox": 4645,
      "ĠDá»ĭch": 4646,
      "ento": 4647,
      "ĠTá»«": 4648,
      "oneer": 4649,
      "ĠCá»į": 4650,
      "rotect": 4651,
      "ĠBá»ĭt": 4652,
      "rophone": 4653,
      "1645": 4654,
      "ĠMasst": 4655,
      "ĠNá»ĩm": 4656,
      "ĠCare": 4657,
      "ĠPioneer": 4658,
      "ĠLoubout": 4659,
      "ĠCooler": 4660,
      "ergeon": 4661,
      "Ġ2160": 4662,
      "ĠBata": 4663,
      "ĠHead": 4664,
      "ĠMicrophone": 4665,
      "ĠLightning": 4666,
      "Technica": 4667,
      "âĤ«,": 4668,
      "ĠMango": 4669,
      "Ġcacao": 4670,
      "ĠZephy": 4671,
      "ĠConstant": 4672,
      "ĠBaseus": 4673,
      "ĠGoogle": 4674,
      "ĠWindows": 4675,
      "ĠFrisolac": 4676,
      "ĠKakashi": 4677,
      "ĠPepsi": 4678,
      "ĠChristian": 4679,
      "ĠDesktop": 4680,
      "TPCN": 4681,
      "Ġbrief": 4682,
      "ĠNoctua": 4683,
      "ĠLouboutin": 4684,
      "ĠZephyrus": 4685,
      ".%": 4686,
      "23": 4687,
      "46": 4688,
      "49": 4689,
      "68": 4690,
      "630": 4691,
      "CE": 4692,
      "Cháº¿": 4693,
      "EC": 4694,
      "HÆ°Æ¡ng": 4695,
      "IF": 4696,
      "KT": 4697,
      "Miáº¿ng": 4698,
      "OA": 4699,
      "Pin": 4700,
      "RP": 4701,
      "SV": 4702,
      "Vá»": 4703,
      "back": 4704,
      "hers": 4705,
      "lot": 4706,
      "me": 4707,
      "play": 4708,
      "tion": 4709,
      "vign": 4710,
      "zo": 4711,
      "¨m": 4712,
      "ªnh": 4713,
      "ãĤ": 4714,
      "ģng": 4715,
      "Ġcash": 4716,
      "ĠtÃł": 4717,
      "Ġno": 4718,
      "ĠnÃºi": 4719,
      "Ġnano": 4720,
      "ĠÄĳiá»ĩp": 4721,
      "ĠÄĳÃ£i": 4722,
      "ĠÄĳÅ©i": 4723,
      "ĠlÃ¡i": 4724,
      "Ġlinen": 4725,
      "Ġlithium": 4726,
      "Ġlegg": 4727,
      "Ġviá»ĩt": 4728,
      "Ġvani": 4729,
      "Ġmarketing": 4730,
      "ĠsÆ°": 4731,
      "ĠbáºŃn": 4732,
      "Ġbamboo": 4733,
      "ĠkÃ©p": 4734,
      "ĠkiÃªng": 4735,
      "Ġgáº·m": 4736,
      "Ġgram": 4737,
      "ĠdÃª": 4738,
      "ĠcháºŃp": 4739,
      "ĠTáº¥m": 4740,
      "ĠTak": 4741,
      "ĠTPU": 4742,
      "Ġchá»£": 4743,
      "Ġchá»©": 4744,
      "Ġngáº§n": 4745,
      "ĠngÃ¡ch": 4746,
      "ĠngÃ³c": 4747,
      "ĠCer": 4748,
      "ĠCap": 4749,
      "ĠCif": 4750,
      "ĠCab": 4751,
      "ĠNinom": 4752,
      "Ġxi": 4753,
      "Ġxáº¡": 4754,
      "ĠxÃ¢m": 4755,
      "quin": 4756,
      "Ġrá»Ļn": 4757,
      "ĠBáº¯c": 4758,
      "ĠBergeon": 4759,
      "Ġbá»ĵng": 4760,
      "Ġtá»±a": 4761,
      "Ġtá»ĵn": 4762,
      "amil": 4763,
      "ĠMus": 4764,
      "ĠMom": 4765,
      "ĠSUS": 4766,
      "Ġnháºµn": 4767,
      "Ġtháº§n": 4768,
      "ĠVang": 4769,
      "ĠViÃªn": 4770,
      "ĠKhá»": 4771,
      "ĠLá»Ļc": 4772,
      "ĠLáº¡p": 4773,
      "ĠLav": 4774,
      "Ġtrá»«": 4775,
      "Ã¹n": 4776,
      "ĠGum": 4777,
      "ĠHan": 4778,
      "eratin": 4779,
      "ĠDL": 4780,
      "ĠDai": 4781,
      "ĠDal": 4782,
      "ĠDur": 4783,
      "ĠPet": 4784,
      "Ġháº±ng": 4785,
      "ene": 4786,
      "ĠAC": 4787,
      "ĠAce": 4788,
      "Ġphi": 4789,
      "ĠGiáº·t": 4790,
      "Ġkhoe": 4791,
      "ald": 4792,
      "ĠRau": 4793,
      "ĠRáº¡ng": 4794,
      "ĠRet": 4795,
      "ĠTrÃ²ng": 4796,
      "ĠTrÃ¡i": 4797,
      "ĠEC": 4798,
      "ĠEO": 4799,
      "Ġchá»īn": 4800,
      "lean": 4801,
      "ĠWah": 4802,
      "Ġcuá»ĳi": 4803,
      "ĠFPT": 4804,
      "ĠFashion": 4805,
      "ĠORI": 4806,
      "ĠtÃ¹ng": 4807,
      "etgear": 4808,
      "ĠISO": 4809,
      "ĠChá»ĳng": 4810,
      "Ġlumen": 4811,
      "ĠSupp": 4812,
      "ĠÄĲá»©ng": 4813,
      "axx": 4814,
      "ĠInch": 4815,
      "ĠInsp": 4816,
      "atek": 4817,
      "atex": 4818,
      "ĠYáº¿u": 4819,
      "iron": 4820,
      "Ġpoly": 4821,
      "afe": 4822,
      "ĠUnder": 4823,
      "Ġ20000": 4824,
      "ĠSauvign": 4825,
      "ĠWhite": 4826,
      "Ġtuá»ĳc": 4827,
      "ĠBlade": 4828,
      "ĠphÃºc": 4829,
      "oko": 4830,
      "ĠNá»ĭt": 4831,
      "ĠHill": 4832,
      "999": 4833,
      "ĠMonster": 4834,
      "ĠMÅ©i": 4835,
      "ĠFresh": 4836,
      "ĠThuáºŃn": 4837,
      "Ġsequin": 4838,
      "Shock": 4839,
      "ENT": 4840,
      "Ġtitanium": 4841,
      "ĠMakita": 4842,
      "1920": 4843,
      "ĠLevi": 4844,
      "ĠArmour": 4845,
      "ĠSports": 4846,
      "Ġcaffeine": 4847,
      "ĠArcher": 4848,
      "ĠVersace": 4849,
      "ĠSaigon": 4850,
      "ĠKeith": 4851,
      "ĠGeox": 4852,
      "ĠPNJ": 4853,
      "Ġcashmere": 4854,
      "Ġlegging": 4855,
      "ĠCabernet": 4856,
      "ĠGumac": 4857,
      "ĠWahl": 4858,
      "ĠInspiron": 4859,
      "ĠSauvignon": 4860,
      "310": 4861,
      "53": 4862,
      "54": 4863,
      "840": 4864,
      ":<": 4865,
      "Báº£o": 4866,
      "Balo": 4867,
      "CA": 4868,
      "Cu": 4869,
      "NÃ³n": 4870,
      "PE": 4871,
      "Pad": 4872,
      "Phone": 4873,
      "Poko": 4874,
      "TA": 4875,
      "bo": 4876,
      "day": 4877,
      "man": 4878,
      "mos": 4879,
      "nau": 4880,
      "oj": 4881,
      "oam": 4882,
      "oun": 4883,
      "pli": 4884,
      "tt": 4885,
      "ty": 4886,
      "ype": 4887,
      "¨o": 4888,
      "Ð´": 4889,
      "ĠtÃ¡ch": 4890,
      "Ġten": 4891,
      "Ġtuá»": 4892,
      "Ġnatri": 4893,
      "ĠÄĳÃłm": 4894,
      "Ġlong": 4895,
      "Ġmer": 4896,
      "ĠmÃºt": 4897,
      "ĠsÆ°Æ¡ng": 4898,
      "hÃ©p": 4899,
      "Ġgáº¥m": 4900,
      "ĠdÆ°": 4901,
      "ĠphÃ´": 4902,
      "ĠhÄĥm": 4903,
      "ĠgiÃ²": 4904,
      "ĠgiÅ©": 4905,
      "ĠchÆ°ng": 4906,
      "ĠchÃ¡u": 4907,
      "Ġcháº¥p": 4908,
      "ĠcháºŃu": 4909,
      "ĠTam": 4910,
      "ĠTote": 4911,
      "ĠTab": 4912,
      "ĠType": 4913,
      "ĠCE": 4914,
      "ĠCung": 4915,
      "ĠCat": 4916,
      "ĠNhÃ¬n": 4917,
      "ĠNAN": 4918,
      "ĠxÆ°á»Łng": 4919,
      "Ġquáº¿": 4920,
      "Ġri": 4921,
      "Ġráº¡n": 4922,
      "ĠrÃ¢m": 4923,
      "ĠBá»ĳ": 4924,
      "ĠBCE": 4925,
      "Ġbá»ıng": 4926,
      "chard": 4927,
      "Ġlá»¥c": 4928,
      "ĠchoÃłng": 4929,
      "ĠÄĲÃł": 4930,
      "ĠMamy": 4931,
      "aul": 4932,
      "ĠSam": 4933,
      "ĠSaf": 4934,
      "ĠVing": 4935,
      "ĠKors": 4936,
      "Ġtrá»¥": 4937,
      "onald": 4938,
      "Ġgá»ıi": 4939,
      "ĠHome": 4940,
      "ĠHero": 4941,
      "erian": 4942,
      "ĠDe": 4943,
      "ĠDiá»ĩn": 4944,
      "ĠDis": 4945,
      "ĠPil": 4946,
      "ary": 4947,
      "Ġngá»©a": 4948,
      "ĠNgÃ´": 4949,
      "ĠNgÄĥn": 4950,
      "ĠRode": 4951,
      "ĠEW": 4952,
      "ĠElly": 4953,
      "eli": 4954,
      "ĠQuÃł": 4955,
      "rom": 4956,
      "roup": 4957,
      "ĠChanh": 4958,
      "ĠChef": 4959,
      "ĠFer": 4960,
      "ĠFeb": 4961,
      "ĠFast": 4962,
      "ĠFlip": 4963,
      "Ġnghá»ī": 4964,
      "unior": 4965,
      "ÄĲá»ĵng": 4966,
      "lum": 4967,
      "ury": 4968,
      "ĠKhung": 4969,
      "ĠÄĲá»Ŀi": 4970,
      "reze": 4971,
      "ĠProSo": 4972,
      "Ġvá»¥n": 4973,
      "102": 4974,
      "ition": 4975,
      "Ġ70": 4976,
      "Ġ128": 4977,
      "ĠTháº£o": 4978,
      "ĠVinMart": 4979,
      "Ġchá»§ng": 4980,
      "Ġxoan": 4981,
      "ĠxoÄĥn": 4982,
      "Ġxoáº¯n": 4983,
      "ĠDaew": 4984,
      "ĠSec": 4985,
      "ĠCaso": 4986,
      "Ġcháº·n": 4987,
      "Cho": 4988,
      "assic": 4989,
      "Nguá»ĵn": 4990,
      "ĠComp": 4991,
      "ĠLogo": 4992,
      "ĠSuns": 4993,
      "ĠDynau": 4994,
      "222": 4995,
      "Ġ144": 4996,
      "ĠDrive": 4997,
      "Ġ802": 4998,
      "Ġacid": 4999,
      "ĠViettel": 5000,
      "ĠPijama": 5001,
      "ĠCrocs": 5002,
      "ĠÃĤu": 5003,
      "ĠVinaPhone": 5004,
      "ĠCoco": 5005,
      "ĠBank": 5006,
      "ĠCamel": 5007,
      "ĠDeli": 5008,
      "ĠATM": 5009,
      "ĠBá»īm": 5010,
      "ĠSwiss": 5011,
      "ĠJacket": 5012,
      "ĠSensitive": 5013,
      "ĠTuáº¥n": 5014,
      "ĠmicroSDXC": 5015,
      "ĠHoco": 5016,
      "Ġglyc": 5017,
      "Samsung": 5018,
      "ĠTolerian": 5019,
      "ĠVivo": 5020,
      "ĠTransit": 5021,
      "KTV": 5022,
      "ĠECCO": 5023,
      "Ġtennis": 5024,
      "Ġtuá»ĩ": 5025,
      "Ġmerino": 5026,
      "ĠMamyPoko": 5027,
      "ĠFebreze": 5028,
      "ĠProSound": 5029,
      "ĠDaewoo": 5030,
      "ĠDynaudio": 5031,
      "ĠToleriane": 5032,
      "//": 5033,
      "06": 5034,
      "3000": 5035,
      "360": 5036,
      "4000": 5037,
      "://": 5038,
      "An": 5039,
      "As": 5040,
      "BÃºt": 5041,
      "Cal": 5042,
      "Dá»": 5043,
      "EF": 5044,
      "FX": 5045,
      "Fone": 5046,
      "HA": 5047,
      "Li": 5048,
      "MHz": 5049,
      "NO": 5050,
      "Ná»Ļi": 5051,
      "OR": 5052,
      "Safe": 5053,
      "Tá»": 5054,
      "Tháº": 5055,
      "UX": 5056,
      "VPower": 5057,
      "eut": 5058,
      "gh": 5059,
      "go": 5060,
      "iem": 5061,
      "lÃ©": 5062,
      "lon": 5063,
      "land": 5064,
      "pad": 5065,
      "ran": 5066,
      "su": 5067,
      "tim": 5068,
      "uel": 5069,
      "vers": 5070,
      "vio": 5071,
      "ys": 5072,
      "©o": 5073,
      "®C": 5074,
      "³nh": 5075,
      "ÃĤ": 5076,
      "Å©m": 5077,
      "Ġáº©n": 5078,
      "Ġamp": 5079,
      "Ľm": 5080,
      "áº®C": 5081,
      "Ġca": 5082,
      "ĠcÆ¡n": 5083,
      "ĠcÃºp": 5084,
      "nger": 5085,
      "Ġnáº¿n": 5086,
      "ĠÄĳe": 5087,
      "ĠÄĳu": 5088,
      "ĠÄĳam": 5089,
      "ĠÄĳan": 5090,
      "ĠlÄĥng": 5091,
      "ĠloÃłi": 5092,
      "Ġlá»Ļi": 5093,
      "Ġvá»ĳn": 5094,
      "Ġmm": 5095,
      "Ġmáº£ng": 5096,
      "Ġmac": 5097,
      "Ġsáº¡n": 5098,
      "ĠsÃ³t": 5099,
      "ĠbÃŃch": 5100,
      "ĠbÃŃt": 5101,
      "ĠkiÃªn": 5102,
      "Ġkali": 5103,
      "ĠgÅ©i": 5104,
      "Ġde": 5105,
      "Ġdáº£i": 5106,
      "Ġduyá»ĩt": 5107,
      "áº¿ch": 5108,
      "Ġthe": 5109,
      "Ġham": 5110,
      "Ġhtt": 5111,
      "Ġtriá»ĩt": 5112,
      "Ġnhai": 5113,
      "ĠÄĳá»īnh": 5114,
      "ĠTitan": 5115,
      "ĠTÃĤ": 5116,
      "Ġdá»©a": 5117,
      "Ġpháº«u": 5118,
      "Ġkhai": 5119,
      "ĠkhÃ¡t": 5120,
      "Ġsá»Ľm": 5121,
      "ĠCáº¥u": 5122,
      "ĠCart": 5123,
      "ĠCable": 5124,
      "ĠCream": 5125,
      "Ġxáº»": 5126,
      "ĠrÆ¡m": 5127,
      "Ġruá»Ļt": 5128,
      "Ġremote": 5129,
      "ĠBig": 5130,
      "ĠBody": 5131,
      "ĠBáº®C": 5132,
      "chi": 5133,
      "chy": 5134,
      "ching": 5135,
      "Ġlá»į": 5136,
      "ank": 5137,
      "ĠÄĲÃ³ng": 5138,
      "ĠMI": 5139,
      "ĠMan": 5140,
      "ĠMáº¬": 5141,
      "ĠST": 5142,
      "ĠStr": 5143,
      "ĠSab": 5144,
      "ĠSmart": 5145,
      "ĠStre": 5146,
      "ĠthÃ¨m": 5147,
      "ĠVC": 5148,
      "ĠVe": 5149,
      "ĠVGA": 5150,
      "ĠVento": 5151,
      "Ġmá»ĩt": 5152,
      "ĠLáº¡t": 5153,
      "ĠLab": 5154,
      "ĠLee": 5155,
      "ĠLef": 5156,
      "ĠLeg": 5157,
      "ĠLife": 5158,
      "ĠhÃ£i": 5159,
      "Ã¹a": 5160,
      "ĠGa": 5161,
      "ĠGen": 5162,
      "ĠGab": 5163,
      "ĠGarm": 5164,
      "ĠHen": 5165,
      "ĠHouse": 5166,
      "ĠHapp": 5167,
      "erin": 5168,
      "erby": 5169,
      "ĠDO": 5170,
      "ĠDuy": 5171,
      "ĠDom": 5172,
      "ĠDav": 5173,
      "ĠDerby": 5174,
      "ĠPor": 5175,
      "ĠPenc": 5176,
      "ĠPyth": 5177,
      "ĠPatek": 5178,
      "áº«y": 5179,
      "ĠAV": 5180,
      "ĠApt": 5181,
      "ĠGiÃłu": 5182,
      "arbon": 5183,
      "ĠThang": 5184,
      "asonic": 5185,
      "alph": 5186,
      "ĠRi": 5187,
      "ĠRalph": 5188,
      "ĠTrÆ°á»Ŀng": 5189,
      "Ġká»ĭch": 5190,
      "Ġ22": 5191,
      "Ġ28": 5192,
      "icylic": 5193,
      "ĠED": 5194,
      "ĠER": 5195,
      "row": 5196,
      "ating": 5197,
      "ĠChels": 5198,
      "iag": 5199,
      "ĠFan": 5200,
      "ĠFus": 5201,
      "ĠFre": 5202,
      "ĠFlex": 5203,
      "ĠXL": 5204,
      "ĠOat": 5205,
      "ĠOMO": 5206,
      "osite": 5207,
      "acy": 5208,
      "ÄĲÃ¡nh": 5209,
      "Ġ64": 5210,
      "ĠJu": 5211,
      "ĠKhÃ³": 5212,
      "ĠShamp": 5213,
      "ĠÄĲá»ı": 5214,
      "ĠPhilipp": 5215,
      "101": 5216,
      "Ġ750": 5217,
      "arks": 5218,
      "ĠVND": 5219,
      "Ġpolyc": 5220,
      "ĠZoom": 5221,
      "ĠTrá»¯": 5222,
      "ĠCanvio": 5223,
      "Ġsandwi": 5224,
      "ĠArct": 5225,
      "ĠSting": 5226,
      "ĠHuáº¿": 5227,
      "iesel": 5228,
      "izer": 5229,
      "Ġloe": 5230,
      "ĠBá»ģn": 5231,
      "ĠAdv": 5232,
      "ĠAsics": 5233,
      "ĠBooks": 5234,
      "ĠRobert": 5235,
      "ĠHoáº·c": 5236,
      "ĠPres": 5237,
      "ĠGiá»ı": 5238,
      "ĠGiá»¯a": 5239,
      "ucation": 5240,
      "Ġsilica": 5241,
      "astic": 5242,
      "Ġsilicone": 5243,
      "pire": 5244,
      "ĠExtreme": 5245,
      "ĠChuÃ´ng": 5246,
      "fect": 5247,
      "ĠMerlot": 5248,
      "ĠVinaKTV": 5249,
      "ĠBasic": 5250,
      "Ġhydro": 5251,
      "Ġhyaluronic": 5252,
      "ĠMako": 5253,
      "ĠATH": 5254,
      "Ġcomposite": 5255,
      "ossy": 5256,
      "ĠMoist": 5257,
      "ĠSimple": 5258,
      "ĠMagSafe": 5259,
      "ĠPerfect": 5260,
      "ÑĥÐ": 5261,
      "ĠSEIK": 5262,
      "ĠEducation": 5263,
      "ÄĲá»įc": 5264,
      "ĠLauren": 5265,
      "cessor": 5266,
      "ĠTeaching": 5267,
      "ĠNestlÃ©": 5268,
      "ĠCoolmate": 5269,
      "ĠMobiFone": 5270,
      "ĠNinomaxx": 5271,
      "ĠORIENT": 5272,
      "ĠDisplay": 5273,
      "ĠChefs": 5274,
      "ĠFerr": 5275,
      "Asus": 5276,
      "iemens": 5277,
      "Ġhttps": 5278,
      "ĠTÃĤY": 5279,
      "ĠCartier": 5280,
      "ĠMáº¬N": 5281,
      "ĠGarmin": 5282,
      "ĠPorter": 5283,
      "ĠPencil": 5284,
      "ĠPython": 5285,
      "ĠAptamil": 5286,
      "arbonate": 5287,
      "ĠChelsea": 5288,
      "ĠShampoo": 5289,
      "ĠPhilippe": 5290,
      "Ġpolycarbonate": 5291,
      "Ġsandwich": 5292,
      "ĠSEIKO": 5293,
      "\".": 5294,
      "):**": 5295,
      "270": 5296,
      "420": 5297,
      "57": 5298,
      "915": 5299,
      "></": 5300,
      "AP": 5301,
      "BÃ¡ch": 5302,
      "Co": 5303,
      "Cola": 5304,
      "Cá»Ńa": 5305,
      "DL": 5306,
      "Dell": 5307,
      "GP": 5308,
      "Gá»": 5309,
      "Giá»": 5310,
      "Gear": 5311,
      "Hiá»ĩu": 5312,
      "IT": 5313,
      "JI": 5314,
      "Log": 5315,
      "Má»": 5316,
      "Mua": 5317,
      "Sen": 5318,
      "Tá»ĳc": 5319,
      "UF": 5320,
      "_,": 5321,
      "bu": 5322,
      "bia": 5323,
      "boh": 5324,
      "bana": 5325,
      "cook": 5326,
      "core": 5327,
      "ile": 5328,
      "ny": 5329,
      "oy": 5330,
      "oil": 5331,
      "ru": 5332,
      "ret": 5333,
      "ten": 5334,
      "tor": 5335,
      "tler": 5336,
      "ve": 5337,
      "weed": 5338,
      "ydr": 5339,
      "Ä©m": 5340,
      "Ð½": 5341,
      "Ġ'": 5342,
      "Ġim": 5343,
      "Ġion": 5344,
      "ĭnh": 5345,
      "ĠcÆ°": 5346,
      "Ġcá»Ļng": 5347,
      "Ġtao": 5348,
      "ĠÄĳÃºc": 5349,
      "ĠÄĳuÃ´i": 5350,
      "ĠÄĳáº³ng": 5351,
      "Ġláº·n": 5352,
      "ĠlÃºn": 5353,
      "ĠvÃ¡": 5354,
      "ĠvÄ©nh": 5355,
      "Ġmá»ĳt": 5356,
      "ĠmÅ©m": 5357,
      "ĠmÄ©m": 5358,
      "Ġsnap": 5359,
      "ĠbÃº": 5360,
      "ĠbÆ¡m": 5361,
      "Ġbik": 5362,
      "Ġbáº·m": 5363,
      "Ġkn": 5364,
      "Ġkraft": 5365,
      "ĠdB": 5366,
      "Ġdáº§n": 5367,
      "Ġdáº¹t": 5368,
      "Ġpas": 5369,
      "Ġpep": 5370,
      "ĠthÃ¡c": 5371,
      "ĠtrÃ´i": 5372,
      "Ġtrau": 5373,
      "Ġgiáº¥m": 5374,
      "Ġthá»ķ": 5375,
      "Ġchino": 5376,
      "ĠÄĳá»£i": 5377,
      "Ġvá»įng": 5378,
      "ĠnghÃ": 5379,
      "ĠCá»Ļt": 5380,
      "ĠCÃ¢u": 5381,
      "ĠNH": 5382,
      "ĠNo": 5383,
      "ĠNinh": 5384,
      "ĠNáº¿p": 5385,
      "ĠNavy": 5386,
      "ĠNVI": 5387,
      "ĠphÃ¬": 5388,
      "Ġquáº¥t": 5389,
      "Ġquart": 5390,
      "Ġrob": 5391,
      "ĠBi": 5392,
      "ĠBáº¡c": 5393,
      "ĠBell": 5394,
      "Ġtá»©": 5395,
      "ane": 5396,
      "anama": 5397,
      "ĠgiÃ¡p": 5398,
      "ĠÄĲÃ´i": 5399,
      "ĠÄĲÃ¢u": 5400,
      "ĠMQ": 5401,
      "ĠMáº¯t": 5402,
      "ĠSN": 5403,
      "ĠSle": 5404,
      "ĠSilk": 5405,
      "ĠchÃªnh": 5406,
      "ĠthÃ¢m": 5407,
      "ĠVid": 5408,
      "ĠVIP": 5409,
      "Ġmá»Ŀi": 5410,
      "ĠKit": 5411,
      "ĠKate": 5412,
      "ĠKeratin": 5413,
      "ĠLÃłng": 5414,
      "ĠLaser": 5415,
      "Ġtrá»«u": 5416,
      "ĠGu": 5417,
      "ĠGap": 5418,
      "ĠGPU": 5419,
      "ĠHit": 5420,
      "ĠDiet": 5421,
      "ĠDiesel": 5422,
      "ĠPap": 5423,
      "ĠPent": 5424,
      "ĠPant": 5425,
      "ĠPure": 5426,
      "ĠProtect": 5427,
      "aist": 5428,
      "ĠAI": 5429,
      "ĠAu": 5430,
      "ĠADA": 5431,
      "Ġyáº¿m": 5432,
      "Ġ110": 5433,
      "Ġkhoáº¯n": 5434,
      "Ġchuá»Ĺi": 5435,
      "ĠRu": 5436,
      "ĠRan": 5437,
      "ĠReg": 5438,
      "ĠTrÃ¢m": 5439,
      "ĠTref": 5440,
      "Ġ2500": 5441,
      "ical": 5442,
      "ĠnhÃº": 5443,
      "oles": 5444,
      "ĠQN": 5445,
      "ĠUy": 5446,
      "Ġ3840": 5447,
      "ĠÃģp": 5448,
      "ĠWaist": 5449,
      "ator": 5450,
      "Ġrá»ĩt": 5451,
      "cker": 5452,
      "ĠXÃ©t": 5453,
      "ivest": 5454,
      "ĠkhÃ©o": 5455,
      "ĠOak": 5456,
      "ĠOdy": 5457,
      "Ġkhuáº¿ch": 5458,
      "kill": 5459,
      "ĠIH": 5460,
      "ĠThá»§": 5461,
      "acl": 5462,
      "acu": 5463,
      "ĠNhang": 5464,
      "ild": 5465,
      "ĠchÃ³i": 5466,
      "ĠChÃ©n": 5467,
      "Ġmidi": 5468,
      "Ġ650": 5469,
      "ĠChá»©a": 5470,
      "ura": 5471,
      "url": 5472,
      "ĠKhuyÃªn": 5473,
      "Ġcarboh": 5474,
      "ĠHDR": 5475,
      "rey": 5476,
      "ige": 5477,
      "ĠPhiÃªn": 5478,
      "ĠPhÆ¡i": 5479,
      "ĠRAVPower": 5480,
      "umi": 5481,
      "ĠElectric": 5482,
      "Ġ720": 5483,
      "entum": 5484,
      "ĠTiross": 5485,
      "Ġfluoride": 5486,
      "ĠBoss": 5487,
      "ĠArc": 5488,
      "ĠStore": 5489,
      "ĠTháº¡ch": 5490,
      "301": 5491,
      "lour": 5492,
      "ĠCoop": 5493,
      "ĠCoat": 5494,
      "ĠConvers": 5495,
      "ĠLogic": 5496,
      "1630": 5497,
      "ĠAcid": 5498,
      "ĠÐ²": 5499,
      "ĠÐ´": 5500,
      "ĠÐ¼": 5501,
      "eyer": 5502,
      "Ġ256": 5503,
      "antum": 5504,
      "ĠHydr": 5505,
      "ssey": 5506,
      "ĠDVB": 5507,
      "ĠClarks": 5508,
      "Ġblouse": 5509,
      "ĠBackup": 5510,
      "Ġlogic": 5511,
      "ĠNhÃ¢n": 5512,
      "Ġspa": 5513,
      "ĠAlph": 5514,
      "ĠCoca": 5515,
      "Thá»±c": 5516,
      "3840": 5517,
      "Sá»ķ": 5518,
      "DIA": 5519,
      "ĠAbb": 5520,
      "ĠEJM": 5521,
      "Ġcompact": 5522,
      "ĠHá»įa": 5523,
      "iquid": 5524,
      "ĠXá»ĭt": 5525,
      "altake": 5526,
      "ĠMatic": 5527,
      "ĠWeathers": 5528,
      "giÃ¢y": 5529,
      "ĠBoost": 5530,
      "ĠLotte": 5531,
      "ĠHermes": 5532,
      "Ġkiá»ģm": 5533,
      "ĠTouch": 5534,
      "ĠMomentum": 5535,
      "ĠDLP": 5536,
      "ĠDurex": 5537,
      "ĠAcecook": 5538,
      "ĠNAND": 5539,
      "ĠPilot": 5540,
      "ĠSecret": 5541,
      "ĠSabina": 5542,
      "ĠGabbana": 5543,
      "ĠDavid": 5544,
      "ĠFusion": 5545,
      "ĠMoistur": 5546,
      "Logitech": 5547,
      "ydrate": 5548,
      "Ġimage": 5549,
      "Ġsnapback": 5550,
      "Ġpastel": 5551,
      "ĠNVIDIA": 5552,
      "Ġquartz": 5553,
      "Ġrobot": 5554,
      "ĠHitachi": 5555,
      "ĠPaper": 5556,
      "ĠADATA": 5557,
      "ĠTrefoil": 5558,
      "ivestar": 5559,
      "ĠOakley": 5560,
      "ĠOdyssey": 5561,
      "Ġcarbohydrate": 5562,
      "ĠHydrating": 5563,
      "ĠWeathershield": 5564,
      "110": 5565,
      "34": 5566,
      "350": 5567,
      "61": 5568,
      "76": 5569,
      "700": 5570,
      "860": 5571,
      "BT": 5572,
      "BW": 5573,
      "BÃ¬nh": 5574,
      "Cook": 5575,
      "Dáº§u": 5576,
      "Dung": 5577,
      "GO": 5578,
      "IC": 5579,
      "Junior": 5580,
      "LS": 5581,
      "MA": 5582,
      "Mbps": 5583,
      "Phili": 5584,
      "Se": 5585,
      "SSD": 5586,
      "Sport": 5587,
      "Skill": 5588,
      "TP": 5589,
      "VX": 5590,
      "WRA": 5591,
      "XB": 5592,
      "aj": 5593,
      "free": 5594,
      "gel": 5595,
      "he": 5596,
      "iel": 5597,
      "jia": 5598,
      "ni": 5599,
      "náº¿u": 5600,
      "noss": 5601,
      "pr": 5602,
      "py": 5603,
      "pro": 5604,
      "rite": 5605,
      "rav": 5606,
      "uá»Ļi": 5607,
      "vid": 5608,
      "vie": 5609,
      "¥u": 5610,
      "ºÐ¸": 5611,
      "ãĥ": 5612,
      "ĊĊĠ": 5613,
      "ĠÃ³ng": 5614,
      "Ġá»ĳc": 5615,
      "Ġá»ĳm": 5616,
      "įa": 5617,
      "ıa": 5618,
      "Ĺng": 5619,
      "á»ķ": 5620,
      "ĠcÆ°á»Ľc": 5621,
      "ĠcÃºn": 5622,
      "ĠtáºŃt": 5623,
      "Ġtweed": 5624,
      "ngÃły": 5625,
      "ĠÄĳáº¯p": 5626,
      "Ġlang": 5627,
      "Ġleo": 5628,
      "Ġlá»Ļng": 5629,
      "Ġláº§m": 5630,
      "ĠlÃ¡t": 5631,
      "Ġláº«y": 5632,
      "ĠmÃ¢y": 5633,
      "Ġmiáº¿n": 5634,
      "Ġsáº£": 5635,
      "Ġsuy": 5636,
      "Ġsong": 5637,
      "Ġbiá»ĩn": 5638,
      "Ġbá»ĳn": 5639,
      "ĠbÃ£": 5640,
      "Ġbaby": 5641,
      "iá»ģng": 5642,
      "Ġgen": 5643,
      "ĠgÃłu": 5644,
      "ĠghÃ©p": 5645,
      "Ġgran": 5646,
      "Ġdáº¯t": 5647,
      "Ġhuá»": 5648,
      "Ġgigabyte": 5649,
      "Ġthá»£": 5650,
      "ĠchÃł": 5651,
      "Ġchlor": 5652,
      "ĠÄĳá»©a": 5653,
      "ĠTw": 5654,
      "ĠTá»ĳ": 5655,
      "ĠTáº¯t": 5656,
      "Ġkhay": 5657,
      "ĠngÆ¡i": 5658,
      "Ġnguá»Ļi": 5659,
      "ĠtÃ©t": 5660,
      "ĠCÆ¡": 5661,
      "ĠCÃ´": 5662,
      "ĠCÃ¡m": 5663,
      "ĠCÅ©ng": 5664,
      "ĠNat": 5665,
      "ĠNote": 5666,
      "ĠNord": 5667,
      "ĠNZX": 5668,
      "ĠNvid": 5669,
      "Ġxong": 5670,
      "Ġquá»": 5671,
      "ĠquÃ¢y": 5672,
      "ĠBÆ¡": 5673,
      "ĠBay": 5674,
      "ĠBÃŃ": 5675,
      "ĠBá»ĵn": 5676,
      "ĠBag": 5677,
      "uynh": 5678,
      "Ġbá»Ľt": 5679,
      "chel": 5680,
      "Ġlá»ĵng": 5681,
      "amine": 5682,
      "ĠÄĲo": 5683,
      "ĠMai": 5684,
      "ĠMáºŃt": 5685,
      "ĠMet": 5686,
      "ĠMir": 5687,
      "ĠSer": 5688,
      "ĠSol": 5689,
      "ĠSAN": 5690,
      "ĠSAT": 5691,
      "inoa": 5692,
      "Ġtháº¯ng": 5693,
      "ĠtháºŃp": 5694,
      "ĠVic": 5695,
      "ĠVÄ©nh": 5696,
      "ĠVans": 5697,
      "ĠVIM": 5698,
      "Ġmá»įc": 5699,
      "Ġmá»įng": 5700,
      "Ġmá»«ng": 5701,
      "ĠKEF": 5702,
      "ĠLV": 5703,
      "ĠLÃ¡": 5704,
      "ĠLÆ°á»£ng": 5705,
      "ĠLed": 5706,
      "ĠLemon": 5707,
      "Ġphá»ıng": 5708,
      "Ġphá»ĵng": 5709,
      "Ġgá»įt": 5710,
      "ĠGÆ°Æ¡ng": 5711,
      "ĠGram": 5712,
      "ĠHoÃłi": 5713,
      "ĠHor": 5714,
      "ĠHers": 5715,
      "ĠHender": 5716,
      "eron": 5717,
      "ĠDT": 5718,
      "ĠDáº¡": 5719,
      "ĠDáº£i": 5720,
      "ĠDream": 5721,
      "ĠPep": 5722,
      "ĠAPC": 5723,
      "ĠAUX": 5724,
      "ĠGil": 5725,
      "ĠGiang": 5726,
      "arr": 5727,
      "ariz": 5728,
      "ĠThay": 5729,
      "ase": 5730,
      "asy": 5731,
      "ĠÄĥng": 5732,
      "Ġnghi": 5733,
      "imer": 5734,
      "hire": 5735,
      "ĠRen": 5736,
      "Ġinverter": 5737,
      "Ġtop": 5738,
      "Ġ23": 5739,
      "Ġ240": 5740,
      "ico": 5741,
      "ĠEasy": 5742,
      "ĠchÃºc": 5743,
      "ĠWaco": 5744,
      "ĠWick": 5745,
      "ĠCharg": 5746,
      "Ġrá»Ĺng": 5747,
      "ĠFC": 5748,
      "ĠFV": 5749,
      "ĠFPS": 5750,
      "ĠFood": 5751,
      "ĠFami": 5752,
      "ĠXÃ¢y": 5753,
      "ust": 5754,
      "ĠkhÃŃch": 5755,
      "ĠOpt": 5756,
      "tern": 5757,
      "ĠVá»£": 5758,
      "oma": 5759,
      "omas": 5760,
      "ĠIP": 5761,
      "ĠIv": 5762,
      "ĠSá»į": 5763,
      "ÄĲiá»ĩn": 5764,
      "ÄĲá»ĥ": 5765,
      "ebok": 5766,
      "trol": 5767,
      "ĠchÃ³p": 5768,
      "ĠJester": 5769,
      "Ġwax": 5770,
      "ockey": 5771,
      "onics": 5772,
      "ift": 5773,
      "ogg": 5774,
      "ĠAnth": 5775,
      "ĠNháº¹": 5776,
      "abe": 5777,
      "igh": 5778,
      "ĠProsp": 5779,
      "ĠDá»«a": 5780,
      "ĠPhilip": 5781,
      "ĠthÃºc": 5782,
      "teur": 5783,
      "ĠYear": 5784,
      "ThÆ°a": 5785,
      "ĠxuÃ¢n": 5786,
      "oud": 5787,
      "edora": 5788,
      "Ġ3060": 5789,
      "Ġ3080": 5790,
      "Ġpolariz": 5791,
      "Ġfedora": 5792,
      "ĠTrá»©ng": 5793,
      "ĠCanin": 5794,
      "ĠHuaw": 5795,
      "ĠHugo": 5796,
      "Ġ95": 5797,
      "Ġ900": 5798,
      "afÃ©": 5799,
      "ĠÄĳoÃłn": 5800,
      "409": 5801,
      "off": 5802,
      "ĠSHB": 5803,
      "ĠSHAR": 5804,
      "stag": 5805,
      "ĠAdam": 5806,
      "ĠSpe": 5807,
      "phen": 5808,
      "ĠCons": 5809,
      "ĠPháº¡m": 5810,
      "erman": 5811,
      "ĠGolden": 5812,
      "cial": 5813,
      "ĠPrem": 5814,
      "ĠMijia": 5815,
      "ĠGiá»Ľi": 5816,
      "1001": 5817,
      "ĠDVR": 5818,
      "Truyá»ĩn": 5819,
      "ĠCloud": 5820,
      "ĠNhÃ£": 5821,
      "ĠOmachi": 5822,
      "ĠWater": 5823,
      "ĠWaterman": 5824,
      "ĠChuáº©n": 5825,
      "ÐµÐ": 5826,
      "ĠPhÃºc": 5827,
      "Teco": 5828,
      "657": 5829,
      "ĠScheme": 5830,
      "ĠGlen": 5831,
      "ĠGlossy": 5832,
      "ĠBlackSh": 5833,
      "ĠPolo": 5834,
      "ĠFitbit": 5835,
      "Sá»¯a": 5836,
      "ĠReebok": 5837,
      "ĠScot": 5838,
      "ĠCamera": 5839,
      "ĠEJF": 5840,
      "ĠSJC": 5841,
      "ĠThermaltake": 5842,
      "ique": 5843,
      "ĠSaint": 5844,
      "ĠEHH": 5845,
      "nisfree": 5846,
      "Ġsimili": 5847,
      "ĠSoundLink": 5848,
      "ĠAtmos": 5849,
      "LBK": 5850,
      "tuáº§n": 5851,
      "ĠInsoles": 5852,
      "ĠActive": 5853,
      "Ġzip": 5854,
      "ĠSmith": 5855,
      "ĠMasstel": 5856,
      "ãĤ¯": 5857,
      "ĠCerave": 5858,
      "Ð´Ñĭ": 5859,
      "ĠVingroup": 5860,
      "elios": 5861,
      "ĠCocoon": 5862,
      "ĠSwissgear": 5863,
      "Tháº»": 5864,
      "pads": 5865,
      "uelson": 5866,
      "ĠLabel": 5867,
      "ĠPresage": 5868,
      "Ġhydrogel": 5869,
      "Ġpeplum": 5870,
      "ĠLaserJet": 5871,
      "ĠPentel": 5872,
      "ĠConverse": 5873,
      "ĠAbbott": 5874,
      "Philips": 5875,
      "Ġhuá»³nh": 5876,
      "ĠNZXT": 5877,
      "ĠNvidia": 5878,
      "ĠBayou": 5879,
      "ĠSATA": 5880,
      "ĠHerschel": 5881,
      "ĠPepti": 5882,
      "ĠWacoal": 5883,
      "ĠProspex": 5884,
      "Ġpolarized": 5885,
      "ĠHuawei": 5886,
      "ĠSHARP": 5887,
      "ĠBlackShark": 5888,
      ",....": 5889,
      ".),": 5890,
      "054": 5891,
      "120": 5892,
      "28": 5893,
      "240": 5894,
      "31": 5895,
      "55": 5896,
      "59": 5897,
      "635": 5898,
      "73": 5899,
      "75": 5900,
      "820": 5901,
      "93": 5902,
      ":_": 5903,
      "Ad": 5904,
      "Anh": 5905,
      "BN": 5906,
      "Bose": 5907,
      "Cáº·p": 5908,
      "Corsair": 5909,
      "Care": 5910,
      "Do": 5911,
      "Electr": 5912,
      "GT": 5913,
      "HS": 5914,
      "HÃ¬nh": 5915,
      "KÃŃnh": 5916,
      "Lite": 5917,
      "MG": 5918,
      "Me": 5919,
      "Micro": 5920,
      "NB": 5921,
      "NG": 5922,
      "OLED": 5923,
      "Ph": 5924,
      "Wear": 5925,
      "aed": 5926,
      "body": 5927,
      "dB": 5928,
      "ds": 5929,
      "dw": 5930,
      "doll": 5931,
      "dator": 5932,
      "fer": 5933,
      "gard": 5934,
      "haw": 5935,
      "home": 5936,
      "ire": 5937,
      "jinom": 5938,
      "kea": 5939,
      "ma": 5940,
      "master": 5941,
      "mbia": 5942,
      "neg": 5943,
      "ochi": 5944,
      "po": 5945,
      "pimer": 5946,
      "wear": 5947,
      "yew": 5948,
      "zzy": 5949,
      "§ng": 5950,
      "¨n": 5951,
      "²i": 5952,
      "»Ñ": 5953,
      "Ċč": 5954,
      "čĊč": 5955,
      "Ġar": 5956,
      "ĠÃło": 5957,
      "Ġoáº£i": 5958,
      "ĳt": 5959,
      "Ļng": 5960,
      "ĠcÆ°á»Ŀi": 5961,
      "Ġcáº©u": 5962,
      "ĠnÃ´ng": 5963,
      "Ġnung": 5964,
      "Ġnit": 5965,
      "ĠÄĳiÃªu": 5966,
      "ĠÄĳá»ĳm": 5967,
      "há»ģ": 5968,
      "ĠlÃ©o": 5969,
      "Ġlatex": 5970,
      "Ġváº©n": 5971,
      "ĠmÄĥng": 5972,
      "ĠmÃ´ng": 5973,
      "Ġmáº§m": 5974,
      "Ġmel": 5975,
      "Ġmat": 5976,
      "ĠmÃ¢m": 5977,
      "Ġsapp": 5978,
      "Ġbáº¿t": 5979,
      "Ġblu": 5980,
      "ĠbÃ¹n": 5981,
      "ĠgÃ¡y": 5982,
      "Ġgáº¯t": 5983,
      "Ġghá»ģ": 5984,
      "Ġdáº¹p": 5985,
      "Ġpar": 5986,
      "Ġhiáº¿u": 5987,
      "Ġhuynh": 5988,
      "Ġtril": 5989,
      "ĠnhÃłi": 5990,
      "Ġcá»«": 5991,
      "iáº¿p": 5992,
      "ĠTK": 5993,
      "ĠTiá»ĩp": 5994,
      "ĠTiá»ģn": 5995,
      "ĠTex": 5996,
      "ĠTide": 5997,
      "ĠTOA": 5998,
      "ĠTUF": 5999,
      "Ġchá»Ĺ": 6000,
      "Ġchá»Ŀ": 6001,
      "Ġdá»įa": 6002,
      "ĠngÃł": 6003,
      "ĠngÃłn": 6004,
      "Ġcá»§ng": 6005,
      "ĠCook": 6006,
      "ĠCáº¥p": 6007,
      "ĠCRP": 6008,
      "ĠNB": 6009,
      "ĠNÃ´ng": 6010,
      "ĠNem": 6011,
      "ĠNáº¥u": 6012,
      "ĠNum": 6013,
      "ĠNight": 6014,
      "ĠNetgear": 6015,
      "ĠxoÃłi": 6016,
      "ĠxÃ¡t": 6017,
      "ĠphÃŃch": 6018,
      "ĠphÃ¨n": 6019,
      "Ġnhá»ĵi": 6020,
      "ĠBM": 6021,
      "ĠBon": 6022,
      "ĠBer": 6023,
      "ĠBÃºn": 6024,
      "ĠBamb": 6025,
      "ĠBib": 6026,
      "chen": 6027,
      "anc": 6028,
      "any": 6029,
      "ĠÄĲen": 6030,
      "ĠMP": 6031,
      "ĠMam": 6032,
      "ĠMá»Ļc": 6033,
      "ĠMáº¡ch": 6034,
      "ĠMous": 6035,
      "ĠMarm": 6036,
      "aus": 6037,
      "á»ĵm": 6038,
      "ĠSB": 6039,
      "ĠSK": 6040,
      "ĠSy": 6041,
      "ĠSÆ°": 6042,
      "ĠSanh": 6043,
      "ĠSoft": 6044,
      "ĠSiemens": 6045,
      "inar": 6046,
      "inos": 6047,
      "ĠchÃ²i": 6048,
      "ĠVáº¡n": 6049,
      "ĠVal": 6050,
      "ĠVest": 6051,
      "ĠVif": 6052,
      "ĠViá»ħn": 6053,
      "ĠVera": 6054,
      "ĠVian": 6055,
      "ĠVach": 6056,
      "ĠKl": 6057,
      "ĠKiá»ģu": 6058,
      "ĠKid": 6059,
      "ĠKav": 6060,
      "ĠKell": 6061,
      "ĠKob": 6062,
      "ĠKind": 6063,
      "ĠLE": 6064,
      "ĠLad": 6065,
      "ĠLum": 6066,
      "ĠLix": 6067,
      "ĠLamy": 6068,
      "Ġná»ģ": 6069,
      "Ġná»Ĺi": 6070,
      "Ġphá»Ļng": 6071,
      "ĠGU": 6072,
      "ĠGáº¥u": 6073,
      "ĠGos": 6074,
      "ĠGPS": 6075,
      "ĠGá»ĵm": 6076,
      "Ġkháº©n": 6077,
      "ĠHer": 6078,
      "ĠHáº¡nh": 6079,
      "ĠHat": 6080,
      "ĠHand": 6081,
      "ĠHnoss": 6082,
      "ery": 6083,
      "erox": 6084,
      "ĠDÆ°Æ¡ng": 6085,
      "ĠDen": 6086,
      "ĠDri": 6087,
      "ĠDeat": 6088,
      "ĠPD": 6089,
      "ĠPeg": 6090,
      "ence": 6091,
      "Ġgiá»ıi": 6092,
      "ĠAR": 6093,
      "ĠAi": 6094,
      "ĠAp": 6095,
      "ĠAjinom": 6096,
      "ema": 6097,
      "ĠphÃ¡c": 6098,
      "Ġphom": 6099,
      "Ġthoáº£ng": 6100,
      "ĠGiao": 6101,
      "ĠThÆ¡": 6102,
      "asus": 6103,
      "Ġkhoai": 6104,
      "alm": 6105,
      "aline": 6106,
      "alth": 6107,
      "imow": 6108,
      "hir": 6109,
      "Ġngá»«": 6110,
      "ĠNgÃły": 6111,
      "ĠNgÅ©": 6112,
      "Ġchuá»ĳt": 6113,
      "ĠRC": 6114,
      "ĠRE": 6115,
      "ĠRang": 6116,
      "ĠRun": 6117,
      "ĠRá»Ńa": 6118,
      "ĠRonald": 6119,
      "ĠRimow": 6120,
      "ĠTráº£i": 6121,
      "ĠTrá»Ļn": 6122,
      "Ġká»ĭp": 6123,
      "Ġ26": 6124,
      "ĠnhÃ©t": 6125,
      "org": 6126,
      "ori": 6127,
      "ĠEX": 6128,
      "ĠEdi": 6129,
      "ĠEth": 6130,
      "ĠEss": 6131,
      "ĠEyew": 6132,
      "olf": 6133,
      "oli": 6134,
      "ese": 6135,
      "Ġsoda": 6136,
      "ĠUg": 6137,
      "ĠUHD": 6138,
      "Ġ39": 6139,
      "ape": 6140,
      "aph": 6141,
      "Ġand": 6142,
      "ĠQuáº£n": 6143,
      "ĠQuan": 6144,
      "ĠQuantum": 6145,
      "leda": 6146,
      "roy": 6147,
      "ater": 6148,
      "ĠChÆ°Æ¡ng": 6149,
      "iac": 6150,
      "ĠFab": 6151,
      "ĠFiss": 6152,
      "ĠXe": 6153,
      "uster": 6154,
      "ĠkhÃ©t": 6155,
      "ĠOsp": 6156,
      "iston": 6157,
      "eth": 6158,
      "une": 6159,
      "Ġ42": 6160,
      "Ġ55": 6161,
      "Ġ540": 6162,
      "kip": 6163,
      "ĠIkea": 6164,
      "ĠSá»©": 6165,
      "otec": 6166,
      "add": 6167,
      "ĠNhÆ°": 6168,
      "ÄĲáº¿": 6169,
      "ebook": 6170,
      "ĠChá»©ng": 6171,
      "ĠJockey": 6172,
      "aking": 6173,
      "ifine": 6174,
      "agi": 6175,
      "ĠHDPE": 6176,
      "505": 6177,
      "ĠNháº¥t": 6178,
      "ĠNháºŃn": 6179,
      "aben": 6180,
      "ĠPha": 6181,
      "olumbia": 6182,
      "ĠInnisfree": 6183,
      "ĠInochi": 6184,
      "lecarry": 6185,
      "Ġbá»ģnh": 6186,
      "1024": 6187,
      "ĠYe": 6188,
      "Ġxua": 6189,
      "ĠTá»±": 6190,
      "ĠVNPT": 6191,
      "Ġshop": 6192,
      "ĠCá»ı": 6193,
      "ppi": 6194,
      "Ġfit": 6195,
      "ĠZero": 6196,
      "ĠStand": 6197,
      "ĠStudio": 6198,
      "ĠStaed": 6199,
      "ĠTháº¥m": 6200,
      "ĠVinaw": 6201,
      "oba": 6202,
      "ĠUVA": 6203,
      "ession": 6204,
      "ersize": 6205,
      "ĠBá»Łi": 6206,
      "ĠCasper": 6207,
      "ĠSpade": 6208,
      "ĠSprite": 6209,
      "bach": 6210,
      "eway": 6211,
      "ĠComet": 6212,
      "erma": 6213,
      "ĠÐº": 6214,
      "ĠÐ¿": 6215,
      "ĠNgá»¥c": 6216,
      "oke": 6217,
      "ular": 6218,
      "hergard": 6219,
      "ĠClassic": 6220,
      "ĠGelpads": 6221,
      "ĠCarneg": 6222,
      "1351": 6223,
      "ĠPredator": 6224,
      "ĠThule": 6225,
      "Ġ178": 6226,
      "ĠGlade": 6227,
      "ĠModal": 6228,
      "ĠVinaCal": 6229,
      "ARA": 6230,
      "ĠPatr": 6231,
      "Ġsalicylic": 6232,
      "ĠDolby": 6233,
      "appa": 6234,
      "HDD": 6235,
      "ĠBalance": 6236,
      "ĠMinipimer": 6237,
      "ĠVichy": 6238,
      "ĠVileda": 6239,
      "Ġover": 6240,
      "Ġoversize": 6241,
      "ĠKiy": 6242,
      "ĠJohnson": 6243,
      "ĠNhuáºŃn": 6244,
      "tream": 6245,
      "ĠSimplecarry": 6246,
      "ĠTimex": 6247,
      "ĠVietnamese": 6248,
      "ĠMFC": 6249,
      "ĠAmpli": 6250,
      "ĠEVA": 6251,
      "ĠCrossbody": 6252,
      "4218": 6253,
      "ĠLaurent": 6254,
      "ĠAQUA": 6255,
      "ĠWeathergard": 6256,
      "ĠĊĠĊ": 6257,
      "ĠEva": 6258,
      "ĠEvoke": 6259,
      "ĠZKTeco": 6260,
      "ĠEnergea": 6261,
      "Ġnuá»ĳt": 6262,
      "ĠBrew": 6263,
      "ĠGTX": 6264,
      "ĠFendi": 6265,
      "ĠConstantin": 6266,
      "ĠDaikin": 6267,
      "ĠDale": 6268,
      "ĠSupply": 6269,
      "board": 6270,
      "ojoba": 6271,
      "ounce": 6272,
      "ĠSafeway": 6273,
      "Ġglycerin": 6274,
      "timate": 6275,
      "ĠStreet": 6276,
      "ĠLifeCam": 6277,
      "ĠHappy": 6278,
      "ĠJuki": 6279,
      "ĠAdvance": 6280,
      "ĠThá»§y": 6281,
      "Ġbabydoll": 6282,
      "ĠSerie": 6283,
      "ĠVictor": 6284,
      "ĠAnthelios": 6285,
      "Electrolux": 6286,
      "Microsoft": 6287,
      "hawk": 6288,
      "Ġargan": 6289,
      "Ġsapphire": 6290,
      "Ġparaben": 6291,
      "Ġtrilby": 6292,
      "ĠNumber": 6293,
      "ĠNighthawk": 6294,
      "ĠBambino": 6295,
      "inarc": 6296,
      "ĠVifon": 6297,
      "ĠVianco": 6298,
      "ĠVacheron": 6299,
      "ĠKavi": 6300,
      "ĠLuminarc": 6301,
      "ĠDeath": 6302,
      "ĠPegasus": 6303,
      "ĠAjinomoto": 6304,
      "ĠRimowa": 6305,
      "ĠEthernet": 6306,
      "ĠEyewear": 6307,
      "ĠFaber": 6308,
      "ĠFissler": 6309,
      "ĠOsprey": 6310,
      "ĠStaedtler": 6311,
      "ĠVinawind": 6312,
      "ĠCarnegie": 6313,
      "\":": 6314,
      ");": 6315,
      ".)": 6316,
      "04": 6317,
      "150": 6318,
      "210": 6319,
      "295": 6320,
      "2657": 6321,
      "47": 6322,
      "48": 6323,
      "460": 6324,
      "64": 6325,
      "650": 6326,
      "71": 6327,
      "7500": 6328,
      "82": 6329,
      "850": 6330,
      "8180": 6331,
      "Apple": 6332,
      "BX": 6333,
      "CL": 6334,
      "ChÃ": 6335,
      "Con": 6336,
      "CPU": 6337,
      "Core": 6338,
      "Clean": 6339,
      "FE": 6340,
      "GR": 6341,
      "HH": 6342,
      "HP": 6343,
      "Háº¡n": 6344,
      "Há»ĩ": 6345,
      "IG": 6346,
      "IS": 6347,
      "In": 6348,
      "KN": 6349,
      "Kh": 6350,
      "Len": 6351,
      "MF": 6352,
      "NES": 6353,
      "Pháº": 6354,
      "Pro": 6355,
      "Razer": 6356,
      "SG": 6357,
      "Su": 6358,
      "VA": 6359,
      "Ve": 6360,
      "VÃ²ng": 6361,
      "VMe": 6362,
      "WB": 6363,
      "YO": 6364,
      "cat": 6365,
      "creen": 6366,
      "case": 6367,
      "enger": 6368,
      "fice": 6369,
      "ha": 6370,
      "hoa": 6371,
      "haus": 6372,
      "jall": 6373,
      "laptop": 6374,
      "lite": 6375,
      "mo": 6376,
      "mar": 6377,
      "mit": 6378,
      "made": 6379,
      "oÃ¡ng": 6380,
      "pin": 6381,
      "ronics": 6382,
      "sa": 6383,
      "sey": 6384,
      "sant": 6385,
      "sys": 6386,
      "ual": 6387,
      "uit": 6388,
      "uche": 6389,
      "vis": 6390,
      "ww": 6391,
      "well": 6392,
      "xonline": 6393,
      "yber": 6394,
      "¡c": 6395,
      "±u": 6396,
      "Ñĩ": 6397,
      "ç»": 6398,
      "Ġ.": 6399,
      "Ġ?": 6400,
      "Ĭm": 6401,
      "Ġcáº¯n": 6402,
      "Ġcollagen": 6403,
      "ĠtÃłn": 6404,
      "Ġter": 6405,
      "Ġtáº»": 6406,
      "Ġnáº¡n": 6407,
      "ĠnÃ´n": 6408,
      "ĠÄĳÃ¨": 6409,
      "ĠÄĳÃ¹a": 6410,
      "ĠláºŃt": 6411,
      "ĠlÃ¢n": 6412,
      "ĠlÃ³a": 6413,
      "ĠvÆ°á»Ľng": 6414,
      "ĠmÃª": 6415,
      "ĠmÃŃt": 6416,
      "Ġmáº¯n": 6417,
      "ĠmáºŃn": 6418,
      "ĠmÃ£n": 6419,
      "Ġmess": 6420,
      "ĠsÄĥn": 6421,
      "Ġbáº¡": 6422,
      "Ġbit": 6423,
      "ĠbÃºi": 6424,
      "Ġbáº¯n": 6425,
      "Ġbuá»ĵn": 6426,
      "ĠbÆ°á»Łi": 6427,
      "ĠkÃª": 6428,
      "ĠkÃ¬m": 6429,
      "ĠduyÃªn": 6430,
      "Ġpl": 6431,
      "Ġheo": 6432,
      "Ġhand": 6433,
      "Ġtrao": 6434,
      "ĠtrÄĥn": 6435,
      "ĠnhÃ¡nh": 6436,
      "ĠnhÆ°á»¡ng": 6437,
      "Ġgiáº»": 6438,
      "ĠTM": 6439,
      "ĠTR": 6440,
      "ĠTop": 6441,
      "ĠTá»ĳt": 6442,
      "Ġdá»įn": 6443,
      "Ġngá»Ļt": 6444,
      "ĠngáºŃy": 6445,
      "ĠtÃ©p": 6446,
      "Ġsá»©t": 6447,
      "Ġcá»§i": 6448,
      "ĠCÆ°á»Ŀng": 6449,
      "ĠCÃ¡nh": 6450,
      "ĠCÃ¡n": 6451,
      "ĠCá»ĳt": 6452,
      "ĠCera": 6453,
      "ĠCocktail": 6454,
      "ĠColumbia": 6455,
      "ĠCyber": 6456,
      "ĠNN": 6457,
      "ĠNov": 6458,
      "ĠNá»ģn": 6459,
      "ĠNVMe": 6460,
      "ĠxÃ©": 6461,
      "ĠxiÃªn": 6462,
      "Ġxáº¹p": 6463,
      "ĠxÃ¨o": 6464,
      "Ġquiet": 6465,
      "Ġquinoa": 6466,
      "ĠrÃ¹ng": 6467,
      "Ġráº¡ng": 6468,
      "ĠrÃ¨n": 6469,
      "ĠBá»ĵ": 6470,
      "ĠBÆ°á»Łi": 6471,
      "Ġbá»Ŀ": 6472,
      "charm": 6473,
      "Ġlá»¡": 6474,
      "amide": 6475,
      "Æ°á»Ľu": 6476,
      "aya": 6477,
      "ayro": 6478,
      "anson": 6479,
      "ĠÄĲÃ´": 6480,
      "ĠÄĲan": 6481,
      "ĠÄĲáºŃy": 6482,
      "ĠÄĲÃło": 6483,
      "ĠMB": 6484,
      "ĠMc": 6485,
      "ĠMin": 6486,
      "ĠMÆ°á»Ŀi": 6487,
      "ĠMen": 6488,
      "ĠMÃ³n": 6489,
      "ĠMed": 6490,
      "ĠMark": 6491,
      "ĠMega": 6492,
      "aur": 6493,
      "ĠhoÃłng": 6494,
      "ÃŃa": 6495,
      "ĠSF": 6496,
      "ĠSS": 6497,
      "ĠSong": 6498,
      "ĠSon": 6499,
      "ĠSand": 6500,
      "ĠSign": 6501,
      "ĠShield": 6502,
      "ĠchÃ¢u": 6503,
      "ĠVH": 6504,
      "ĠVen": 6505,
      "ĠVÃ¢n": 6506,
      "ĠVel": 6507,
      "ĠVed": 6508,
      "ĠVacu": 6509,
      "**.": 6510,
      "ĠKa": 6511,
      "ĠKen": 6512,
      "ĠKas": 6513,
      "ĠKaki": 6514,
      "ĠKey": 6515,
      "ĠLat": 6516,
      "ĠLink": 6517,
      "ĠLinen": 6518,
      "ĠLHC": 6519,
      "Ġá»©c": 6520,
      "ĠGS": 6521,
      "ĠGre": 6522,
      "ĠGá»ĳm": 6523,
      "ĠHV": 6524,
      "ĠHÃ¡n": 6525,
      "ĠHÆ°á»Ľng": 6526,
      "ĠHER": 6527,
      "Ġkháº£m": 6528,
      "ĠDee": 6529,
      "ĠDew": 6530,
      "ĠDTS": 6531,
      "ĠDaph": 6532,
      "ĠPF": 6533,
      "ĠPar": 6534,
      "ĠPico": 6535,
      "ena": 6536,
      "ĠAx": 6537,
      "emory": 6538,
      "ĠphÃ³": 6539,
      "Ġthoa": 6540,
      "ĠGig": 6541,
      "ĠGiáº£m": 6542,
      "Ġ140": 6543,
      "ĠtÃºc": 6544,
      "ĠThoáº£i": 6545,
      "ĠThomas": 6546,
      "Ġhá»ĵn": 6547,
      "ĠnhÃło": 6548,
      "ime": 6549,
      "imex": 6550,
      "immer": 6551,
      "Ġngá»Ŀ": 6552,
      "Ġngá»«ng": 6553,
      "ĠNgáº¡n": 6554,
      "...),": 6555,
      "ĠRW": 6556,
      "ĠRX": 6557,
      "ĠRies": 6558,
      "ĠRink": 6559,
      "ĠRev": 6560,
      "ĠRuá»Ļt": 6561,
      "itage": 6562,
      "ĠnhÃ£o": 6563,
      "ĠEff": 6564,
      "ĠEDS": 6565,
      "ĠEross": 6566,
      "olo": 6567,
      "oly": 6568,
      "olink": 6569,
      "opalm": 6570,
      "ĠQi": 6571,
      "ĠÃĬm": 6572,
      "Ġ3200": 6573,
      "Ġ313": 6574,
      "apa": 6575,
      "ĠQuá»·": 6576,
      "ĠWh": 6577,
      "ĠWr": 6578,
      "ĠWar": 6579,
      "ĠChin": 6580,
      "ĠChÄĥm": 6581,
      "Ġrá»£n": 6582,
      "ĠFS": 6583,
      "ĠFree": 6584,
      "ĠFoam": 6585,
      "ĠFjall": 6586,
      "ushi": 6587,
      "ĠOdo": 6588,
      "ĠOff": 6589,
      "Ġnghá»ĭ": 6590,
      "iso": 6591,
      "ett": 6592,
      "ette": 6593,
      "Ġsuit": 6594,
      "king": 6595,
      "dien": 6596,
      "Ġjojoba": 6597,
      "liam": 6598,
      "ĠThá»ĭt": 6599,
      "ĠThá»Ľt": 6600,
      "pstop": 6601,
      "ĠJord": 6602,
      "ĠShe": 6603,
      "ĠShav": 6604,
      "ĠShure": 6605,
      "estos": 6606,
      "Ġcaro": 6607,
      "ĠHDW": 6608,
      "Ġcouche": 6609,
      "ĠÄĲá»ĩ": 6610,
      "ĠAnti": 6611,
      "502": 6612,
      "odos": 6613,
      "igg": 6614,
      "ineken": 6615,
      "olution": 6616,
      "201": 6617,
      "umer": 6618,
      "SDW": 6619,
      "ĊĠĠĠĠĠ": 6620,
      "ĠYáº¿n": 6621,
      "Ġ75": 6622,
      "ents": 6623,
      "ential": 6624,
      "ĠTá»ķ": 6625,
      "iri": 6626,
      "Ġflour": 6627,
      "ĠZw": 6628,
      "avel": 6629,
      "Ġxáº£y": 6630,
      "ĠquÃ½t": 6631,
      "ĠAriel": 6632,
      "ĠSenior": 6633,
      "ĠVinac": 6634,
      "ĠVinmart": 6635,
      "ĠVinagi": 6636,
      "aff": 6637,
      "obe": 6638,
      "ĠUVB": 6639,
      "ĠSeam": 6640,
      "star": 6641,
      "derique": 6642,
      "ĠBranson": 6643,
      "Ġbul": 6644,
      "Ġbuild": 6645,
      "ĠAdayro": 6646,
      "phone": 6647,
      "ĠLux": 6648,
      "ĠAspire": 6649,
      "ĠUnicharm": 6650,
      "kins": 6651,
      "ĠtuÃ½": 6652,
      "Ġ501": 6653,
      "ĠAlloy": 6654,
      "NguyÃªn": 6655,
      "inkPad": 6656,
      "ĠDuff": 6657,
      "atinum": 6658,
      "ĠLoafer": 6659,
      "ĠNgá»Ńi": 6660,
      "ĠPrime": 6661,
      "ula": 6662,
      "Ġ2400": 6663,
      "ĠHyaluronic": 6664,
      "ĠMask": 6665,
      "ĠUltimate": 6666,
      "ĠFuzzy": 6667,
      "NhÃł": 6668,
      "ĠClim": 6669,
      "inda": 6670,
      "indy": 6671,
      "ĠSteam": 6672,
      "ĠStephen": 6673,
      "ĠCaryn": 6674,
      "ĠVietti": 6675,
      "ĠPowerPort": 6676,
      "ĠPowerCore": 6677,
      "ĠBelvie": 6678,
      "2160": 6679,
      "ĠSchott": 6680,
      "ĠEcoc": 6681,
      "ĠCocopalm": 6682,
      "ense": 6683,
      "enser": 6684,
      "PTC": 6685,
      "Sá»Ń": 6686,
      "ÑĢÑĥÐ": 6687,
      "ĠTeak": 6688,
      "ĠMarou": 6689,
      "ĠBath": 6690,
      "ĠBatter": 6691,
      "ĠHaier": 6692,
      "sman": 6693,
      "ĠHeineken": 6694,
      "ĠTotolink": 6695,
      "ĠCharger": 6696,
      "Ð¾Ð²": 6697,
      "ĠMicronics": 6698,
      "ĠDelsey": 6699,
      "5650": 6700,
      "ĠMacBook": 6701,
      "ĠMedi": 6702,
      "ĠSwift": 6703,
      "dynamic": 6704,
      "lette": 6705,
      "ĠArmani": 6706,
      "ÑĭÐµ": 6707,
      "ĠEVO": 6708,
      "ĠEdition": 6709,
      "ĠXá»Ńng": 6710,
      "ĠTSA": 6711,
      "Ġxá»īn": 6712,
      "ĠPhá»§": 6713,
      "ĠPhá»ĳi": 6714,
      "ĠESF": 6715,
      "ĠWilliam": 6716,
      "ĠEnergizer": 6717,
      "ĠPET": 6718,
      "ĠPurifi": 6719,
      "ĠSupor": 6720,
      "INs": 6721,
      "ĠMuá»ĳi": 6722,
      "ĠSalom": 6723,
      "ĠWalmart": 6724,
      "ĠFocus": 6725,
      "ĠTakstar": 6726,
      "ĠKhá»Łi": 6727,
      "Ġripstop": 6728,
      "ĠSunscreen": 6729,
      "ĠVivoBook": 6730,
      "Ġampli": 6731,
      "ĠMIA": 6732,
      "ĠLeft": 6733,
      "ĠDomestos": 6734,
      "ĠEDH": 6735,
      "ĠFrederique": 6736,
      "ĠOats": 6737,
      "ĠArctis": 6738,
      "Ġknife": 6739,
      "ĠBellroy": 6740,
      "ĠVidasonic": 6741,
      "ĠKitchen": 6742,
      "ĠPants": 6743,
      "ĠRegular": 6744,
      "aclar": 6745,
      "ĠÐ´ÑĢÑĥÐ": 6746,
      "eyerdynamic": 6747,
      "ĠAlpha": 6748,
      "raven": 6749,
      "ĠMirinda": 6750,
      "ĠSolar": 6751,
      "ĠSANYO": 6752,
      "ĠHorotec": 6753,
      "ĠIvory": 6754,
      "ĠConsumer": 6755,
      "Ġmelamine": 6756,
      "Ġbluetooth": 6757,
      "ĠBibica": 6758,
      "ĠMoussant": 6759,
      "ĠMarmot": 6760,
      "ĠKobo": 6761,
      "ĠLEGO": 6762,
      "ĠLady": 6763,
      "ĠGosto": 6764,
      "ĠHeritage": 6765,
      "ĠApex": 6766,
      "ĠEdifice": 6767,
      "ĠEssential": 6768,
      "ĠUgreen": 6769,
      "iacin": 6770,
      "bachhoa": 6771,
      "ĠVictoria": 6772,
      "Ġmessenger": 6773,
      "Ġhandmade": 6774,
      "ĠCeraVe": 6775,
      "ĠVedan": 6776,
      "ĠVacuum": 6777,
      "ĠLinksys": 6778,
      "ĠDeep": 6779,
      "ĠDewalt": 6780,
      "ĠDaphaco": 6781,
      "ĠRinkan": 6782,
      "ĠEffaclar": 6783,
      "ĠErosska": 6784,
      "ĠFjallraven": 6785,
      "ĠJordan": 6786,
      "ĠVinagiÃły": 6787,
      "ĠAdayroi": 6788,
      "ĠViettien": 6789,
      "ĠÐ´ÑĢÑĥÐ³": 6790,
      "bachhoaxonline": 6791,
      "+.": 6792,
      ",..": 6793,
      "08": 6794,
      "1409": 6795,
      "29": 6796,
      "380": 6797,
      "330": 6798,
      "319": 6799,
      "550": 6800,
      "590": 6801,
      "533": 6802,
      "640": 6803,
      "91": 6804,
      "98": 6805,
      "9500": 6806,
      "Al": 6807,
      "ADF": 6808,
      "Bá»Ļt": 6809,
      "Cl": 6810,
      "Cáº¥u": 6811,
      "Cast": 6812,
      "DO": 6813,
      "DÃłn": 6814,
      "EPA": 6815,
      "FK": 6816,
      "FOR": 6817,
      "FIT": 6818,
      "GN": 6819,
      "GS": 6820,
      "HER": 6821,
      "JBL": 6822,
      "Ká»ĥ": 6823,
      "KVN": 6824,
      "LC": 6825,
      "LG": 6826,
      "LI": 6827,
      "LÃł": 6828,
      "Liquid": 6829,
      "Man": 6830,
      "MÃłn": 6831,
      "NuÃ´i": 6832,
      "NSI": 6833,
      "NEX": 6834,
      "Netgear": 6835,
      "OW": 6836,
      "PD": 6837,
      "Ri": 6838,
      "SE": 6839,
      "Sony": 6840,
      "TD": 6841,
      "TM": 6842,
      "TO": 6843,
      "Tai": 6844,
      "TiÃªu": 6845,
      "THER": 6846,
      "UK": 6847,
      "VO": 6848,
      "Váº£i": 6849,
      "Vá»ĩ": 6850,
      "VGA": 6851,
      "Wh": 6852,
      "ain": 6853,
      "bot": 6854,
      "bat": 6855,
      "bur": 6856,
      "bre": 6857,
      "cel": 6858,
      "cean": 6859,
      "dea": 6860,
      "fate": 6861,
      "gr": 6862,
      "ible": 6863,
      "iji": 6864,
      "ju": 6865,
      "jen": 6866,
      "lin": 6867,
      "los": 6868,
      "low": 6869,
      "ment": 6870,
      "mama": 6871,
      "na": 6872,
      "no": 6873,
      "nes": 6874,
      "noi": 6875,
      "nday": 6876,
      "oes": 6877,
      "par": 6878,
      "side": 6879,
      "smart": 6880,
      "tch": 6881,
      "tle": 6882,
      "toc": 6883,
      "uáº¥n": 6884,
      "ull": 6885,
      "vat": 6886,
      "wn": 6887,
      "ware": 6888,
      "za": 6889,
      "µ·": 6890,
      "ºÐ¾": 6891,
      "Ã¼": 6892,
      "è®": 6893,
      "Ġal": 6894,
      "Ġáº¹p": 6895,
      "Ġit": 6896,
      "Ġat": 6897,
      "Ġ....": 6898,
      "ĠÑģ": 6899,
      "įp": 6900,
      "ĠcÆ°á»Ŀm": 6901,
      "Ġti": 6902,
      "Ġtáº¥n": 6903,
      "ĠnÃ´i": 6904,
      "ĠnÃ¡ch": 6905,
      "Ġnil": 6906,
      "Ġnik": 6907,
      "ĠnÆ°á»Ľu": 6908,
      "Ġniacin": 6909,
      "ĠÄĳÃ³n": 6910,
      "ĠÄĳáº¥u": 6911,
      "ĠÄĳá»ĳc": 6912,
      "ĠlÃ´i": 6913,
      "ĠlÃ¢y": 6914,
      "ĠlÃ¡ng": 6915,
      "Ġlon": 6916,
      "ĠlÄĥn": 6917,
      "Ġláº½": 6918,
      "ĠmÃ²": 6919,
      "Ġmáº¡o": 6920,
      "ĠmÃ©p": 6921,
      "Ġmáº©y": 6922,
      "Ġmica": 6923,
      "ĠmÃŃa": 6924,
      "Ġmemory": 6925,
      "Ġsáº£o": 6926,
      "Ġsáº«": 6927,
      "ĠsÆ°u": 6928,
      "Ġstr": 6929,
      "ĠbÃ¡": 6930,
      "Ġber": 6931,
      "Ġben": 6932,
      "Ġbáº¡o": 6933,
      "Ġbaz": 6934,
      "Ġboh": 6935,
      "Ġgáº¡t": 6936,
      "Ġgáº¥u": 6937,
      "áº£y": 6938,
      "ĠthÄĥng": 6939,
      "ĠthÆ°a": 6940,
      "ĠhÃłn": 6941,
      "Ġhanh": 6942,
      "Ġhiáº¿m": 6943,
      "Ġhuáº¥n": 6944,
      "Ġtric": 6945,
      "Ġgiáº¥u": 6946,
      "Ġthá»Ł": 6947,
      "ĠchÃ¡t": 6948,
      "Ġchinos": 6949,
      "Ġcá»Ĺ": 6950,
      "Ġcá»Ń": 6951,
      "Ġhá»ĳ": 6952,
      "ĠTI": 6953,
      "ĠTer": 6954,
      "ĠTen": 6955,
      "ĠTÃ¢n": 6956,
      "ĠTiá»ĩc": 6957,
      "ĠTat": 6958,
      "ĠTev": 6959,
      "ĠTencel": 6960,
      "Ġchá»Ľp": 6961,
      "ĠlÃłng": 6962,
      "Ġdá»«ng": 6963,
      "ĠtÃ²": 6964,
      "ĠtÃ¢n": 6965,
      "Ġsá»¥c": 6966,
      "ĠCH": 6967,
      "ĠCin": 6968,
      "ĠCáº¥t": 6969,
      "ĠCá»ĳi": 6970,
      "ĠCel": 6971,
      "ĠCoa": 6972,
      "ĠCity": 6973,
      "ĠCru": 6974,
      "ĠCodos": 6975,
      "ĠNR": 6976,
      "ĠNeo": 6977,
      "ĠNor": 6978,
      "ĠNÃºt": 6979,
      "ĠNite": 6980,
      "ĠNuÃ´i": 6981,
      "ĠNeut": 6982,
      "ĠNappa": 6983,
      "ĠquÃª": 6984,
      "ĠquÃ¢n": 6985,
      "ĠrÃ´": 6986,
      "Ġráº£nh": 6987,
      "ĠrÆ°á»Ľi": 6988,
      "ĠÄĳá»Ļn": 6989,
      "ĠBam": 6990,
      "ĠBiÃªn": 6991,
      "ĠBand": 6992,
      "ĠBir": 6993,
      "ĠBow": 6994,
      "ĠBiz": 6995,
      "ĠBlo": 6996,
      "ĠBER": 6997,
      "ĠBamboo": 6998,
      "ĠBeyerdynamic": 6999,
      "Ġbá»ĵ": 7000,
      "Ġbá»ĵi": 7001,
      "chan": 7002,
      "chers": 7003,
      "angler": 7004,
      "angAnh": 7005,
      "ĠÄĲÃ¡p": 7006,
      "ĠÄĲáº¡o": 7007,
      "ĠÄĲáº³ng": 7008,
      "ĠMC": 7009,
      "ĠMO": 7010,
      "ĠMÃª": 7011,
      "ĠMáº¹": 7012,
      "ĠMouse": 7013,
      "ĠMishi": 7014,
      "ĠMall": 7015,
      "ĠMaj": 7016,
      "ĠSD": 7017,
      "ĠSÆ¡": 7018,
      "ĠSang": 7019,
      "ĠSá»ĵi": 7020,
      "ĠSá»ĳng": 7021,
      "ĠSet": 7022,
      "ĠSom": 7023,
      "ĠSad": 7024,
      "ĠSag": 7025,
      "ĠSof": 7026,
      "ĠSize": 7027,
      "ĠSci": 7028,
      "ĠSke": 7029,
      "ins": 7030,
      "Ġnháº¥m": 7031,
      "ĠVT": 7032,
      "ĠVÆ°Æ¡ng": 7033,
      "ĠVis": 7034,
      "ĠVir": 7035,
      "ĠVeston": 7036,
      "ĠVAS": 7037,
      "ĠVEC": 7038,
      "ĠKA": 7039,
      "ĠKan": 7040,
      "ĠKot": 7041,
      "ĠKraft": 7042,
      "ĠLiá»ģu": 7043,
      "ĠLin": 7044,
      "ĠLÃ¢n": 7045,
      "ĠLÃ³t": 7046,
      "ĠLÆ°á»Ľi": 7047,
      "ĠLÃło": 7048,
      "ĠLif": 7049,
      "ĠLite": 7050,
      "ĠLex": 7051,
      "ĠLEA": 7052,
      "ĠLact": 7053,
      "ĠLithium": 7054,
      "ĠLivestar": 7055,
      "Ġná»±c": 7056,
      "Ġá»įp": 7057,
      "ond": 7058,
      "onit": 7059,
      "ĠGI": 7060,
      "ĠGO": 7061,
      "ĠGV": 7062,
      "ĠGog": 7063,
      "ĠGbps": 7064,
      "Ġkháº¥u": 7065,
      "ĠHA": 7066,
      "ĠHÃłng": 7067,
      "ĠHard": 7068,
      "ĠHist": 7069,
      "ĠHarm": 7070,
      "ĠHole": 7071,
      "ĠHarr": 7072,
      "ĠHigh": 7073,
      "ĠHEPA": 7074,
      "ĠDA": 7075,
      "ĠDiá»ĩt": 7076,
      "ĠDot": 7077,
      "ĠDÃ¢u": 7078,
      "ĠDiv": 7079,
      "ĠDate": 7080,
      "ĠDiá»ħn": 7081,
      "ĠDHA": 7082,
      "ĠPot": 7083,
      "ĠPel": 7084,
      "ĠPav": 7085,
      "ĠPRO": 7086,
      "ĠPanama": 7087,
      "ĠAA": 7088,
      "ĠAli": 7089,
      "ĠAPI": 7090,
      "ĠANSI": 7091,
      "emian": 7092,
      "Ġphiá»ģn": 7093,
      "ĠGigabyte": 7094,
      "Ġ180": 7095,
      "Ġ190": 7096,
      "ars": 7097,
      "ardi": 7098,
      "ĠThi": 7099,
      "ĠThin": 7100,
      "ĠThÃ¡o": 7101,
      "ĠThoÃ¡ng": 7102,
      "ĠThinkPad": 7103,
      "otics": 7104,
      "asa": 7105,
      "asm": 7106,
      "alink": 7107,
      "ĠnhÃłu": 7108,
      "hing": 7109,
      "Ġchui": 7110,
      "ĠRM": 7111,
      "ĠRiv": 7112,
      "ĠRom": 7113,
      "ĠRock": 7114,
      "ĠRade": 7115,
      "ĠRep": 7116,
      "ĠRaff": 7117,
      "ĠTrÃ¬nh": 7118,
      "ĠTráº¯ng": 7119,
      "ĠTreat": 7120,
      "ĠTravel": 7121,
      "ĠCháºŃu": 7122,
      "Ġ220": 7123,
      "orn": 7124,
      "oro": 7125,
      "Ġkhá»§ng": 7126,
      "ĠNhá»ı": 7127,
      "ĠNhá»Ŀ": 7128,
      "ĠEF": 7129,
      "ĠEver": 7130,
      "olic": 7131,
      "oppy": 7132,
      "ĠquÃ¡t": 7133,
      "elli": 7134,
      "ĠchÃºa": 7135,
      "ĠUL": 7136,
      "ĠUr": 7137,
      "ĠUá»ĳng": 7138,
      "ĠUPF": 7139,
      "apore": 7140,
      "ĠQuang": 7141,
      "ĠQuáºŃn": 7142,
      "ĠQuaker": 7143,
      "lever": 7144,
      "rogen": 7145,
      "ĠWPA": 7146,
      "Ġcuá»ĳc": 7147,
      "ĠChuyá»ĩn": 7148,
      "Ġrá»«ng": 7149,
      "Ġrá»Ľt": 7150,
      "ĠFI": 7151,
      "ĠFil": 7152,
      "ĠFDA": 7153,
      "ĠFah": 7154,
      "ĠFAT": 7155,
      "ĠFaster": 7156,
      "ĠFluoride": 7157,
      "ĠXS": 7158,
      "ĠXT": 7159,
      "ĠXÃ¡ch": 7160,
      "ĠXPS": 7161,
      "ĠOut": 7162,
      "ĠOcean": 7163,
      "ison": 7164,
      "Ġ430": 7165,
      "Ġsul": 7166,
      "Ġ512": 7167,
      "ĠILS": 7168,
      "ĠIdea": 7169,
      "ost": 7170,
      "ding": 7171,
      "ĠSá»Ł": 7172,
      "ado": 7173,
      "acom": 7174,
      "ĠvÃŃu": 7175,
      "Ġchiff": 7176,
      "ÄĲÃ¢y": 7177,
      "ebra": 7178,
      "trang": 7179,
      "ille": 7180,
      "illing": 7181,
      "Ġmix": 7182,
      "ĠJim": 7183,
      "ĠJet": 7184,
      "ĠJAS": 7185,
      "ĠJINs": 7186,
      "Ġwith": 7187,
      "ĠKhangAnh": 7188,
      "ĠSher": 7189,
      "Ġvuá»ĳt": 7190,
      "ĠAnd": 7191,
      "ĠAness": 7192,
      "ĠlÃ²e": 7193,
      "ylene": 7194,
      "ĠNháº¡c": 7195,
      "oderma": 7196,
      "igen": 7197,
      "Ġcanola": 7198,
      "ido": 7199,
      "ĠProcessor": 7200,
      "ĠPromaster": 7201,
      "ĠInk": 7202,
      "ĠInabe": 7203,
      "ĠInvis": 7204,
      "ĠCuá»Ļc": 7205,
      "Ġ85": 7206,
      "Ġ870": 7207,
      "ika": 7208,
      "ikk": 7209,
      "ikan": 7210,
      "ĠYÃªu": 7211,
      "ĠYak": 7212,
      "ĠYork": 7213,
      "6010": 7214,
      "ould": 7215,
      "oney": 7216,
      "Ġfor": 7217,
      "Ġfoam": 7218,
      "ĠZen": 7219,
      "ĠZebra": 7220,
      "ella": 7221,
      "luten": 7222,
      "ĠSenka": 7223,
      "ĠVinatex": 7224,
      "3025": 7225,
      "izing": 7226,
      "ĠThÃº": 7227,
      "afina": 7228,
      "Cháº£o": 7229,
      "cool": 7230,
      "Ġloáº¹t": 7231,
      "ĠSHA": 7232,
      "stock": 7233,
      "ĠAdonit": 7234,
      "ardon": 7235,
      "ĠSpeed": 7236,
      "ĠSpigen": 7237,
      "111": 7238,
      "ĠUnilever": 7239,
      "ĠControl": 7240,
      "Ġlá»ĩnh": 7241,
      "ewher": 7242,
      "70101": 7243,
      "Ġoxi": 7244,
      "156": 7245,
      "1570": 7246,
      "ĠPlatinum": 7247,
      "ĠDutch": 7248,
      "Ġ1900": 7249,
      "ĠAccessor": 7250,
      "ordura": 7251,
      "eyes": 7252,
      "ult": 7253,
      "ulin": 7254,
      "ĠSunday": 7255,
      "ĠGiá»ĳng": 7256,
      "ĠDymo": 7257,
      "Ġtrue": 7258,
      "ĠOwnday": 7259,
      "airs": 7260,
      "ĠLenor": 7261,
      "ĠWikip": 7262,
      "ĠCADI": 7263,
      "TrÃ¡nh": 7264,
      "rah": 7265,
      "Ð¾ÑĢ": 7266,
      "itsu": 7267,
      "odyne": 7268,
      "brid": 7269,
      "Ġblog": 7270,
      "ĠStealth": 7271,
      "arge": 7272,
      "ĠCarbon": 7273,
      "gged": 7274,
      "ĠEnchan": 7275,
      "ĠAMOLED": 7276,
      "ĠChuck": 7277,
      "enciag": 7278,
      "ational": 7279,
      "ĠTaylor": 7280,
      "2720": 7281,
      "ĠAquafina": 7282,
      "Ð¸ÑĢ": 7283,
      "ĠtrÃ¹n": 7284,
      "ĠAldo": 7285,
      "Ġsá»Ŀn": 7286,
      "ĠMode": 7287,
      "ĠChic": 7288,
      "intage": 7289,
      "Sharp": 7290,
      "aunt": 7291,
      "ĠPedag": 7292,
      "ĠReal": 7293,
      "ĠKhuáº©n": 7294,
      "668": 7295,
      "ĠBall": 7296,
      "ĠBalenciag": 7297,
      "ĠScanJet": 7298,
      "ĠGame": 7299,
      "ĠEJG": 7300,
      "ĠThá»ĭnh": 7301,
      "ĠStarTech": 7302,
      "Ð¾Ð»": 7303,
      "ĠMartin": 7304,
      "Ġoval": 7305,
      "ĠMacro": 7306,
      "031": 7307,
      "ĠMeiji": 7308,
      "ĠThermo": 7309,
      "ĠCleansing": 7310,
      "Ġbodycon": 7311,
      "ĠTimbu": 7312,
      "ĠMagic": 7313,
      "ĠFacebook": 7314,
      "illa": 7315,
      "ĠSensodyne": 7316,
      "ĠOriginals": 7317,
      "MOTO": 7318,
      "ĠBarr": 7319,
      "ĠEVGA": 7320,
      "ĠSuperNO": 7321,
      "Ġcaffein": 7322,
      "ĠGrand": 7323,
      "++++": 7324,
      "kenstock": 7325,
      "ĠPTFE": 7326,
      "ĠNghe": 7327,
      "ĠWilkins": 7328,
      "ĠCleaner": 7329,
      "Lá»±a": 7330,
      "Lá»Ľp": 7331,
      "ĠVanson": 7332,
      "ĠLotion": 7333,
      "ĠPurina": 7334,
      "1801": 7335,
      "Chá»įn": 7336,
      "ilion": 7337,
      "shop": 7338,
      "ync": 7339,
      "ĠTNHH": 7340,
      "ĠColor": 7341,
      "ĠMediaMart": 7342,
      "ĠSMV": 7343,
      "ĠSalvat": 7344,
      "ĠSingapore": 7345,
      "ĠFocal": 7346,
      "ĠMasstige": 7347,
      "ĠHanes": 7348,
      "ĠACEA": 7349,
      "ĠSupport": 7350,
      "ĠTamari": 7351,
      "ĠCata": 7352,
      "ĠEWF": 7353,
      "Dá»ħ": 7354,
      "Tá»§": 7355,
      "ĠLegion": 7356,
      "ĠHenry": 7357,
      "ĠDOJI": 7358,
      "ĠDisplayPort": 7359,
      "Sennheiser": 7360,
      "Ġbiker": 7361,
      "ĠnghÃ¨o": 7362,
      "ĠNoir": 7363,
      "ĠBioderma": 7364,
      "ĠSNK": 7365,
      "ĠSleep": 7366,
      "icals": 7367,
      "urless": 7368,
      "ĠÐ²Ð¸": 7369,
      "ĠMoisturizing": 7370,
      "Ġgranite": 7371,
      "ĠNature": 7372,
      "ĠNordhaus": 7373,
      "Ġquá»µ": 7374,
      "ĠGrammar": 7375,
      "ĠGillette": 7376,
      "ĠOptoma": 7377,
      "ternational": 7378,
      "ĠYears": 7379,
      "ĠPremium": 7380,
      "ĠScotch": 7381,
      "Ġmatcha": 7382,
      "ĠMamamy": 7383,
      "ĠKlairs": 7384,
      "Ġ26800": 7385,
      "catel": 7386,
      "ĠMedic": 7387,
      "aurine": 7388,
      "ĠHERO": 7389,
      "ĠPFOA": 7390,
      "ĠAxit": 7391,
      "ĠWrangler": 7392,
      "ĠOdourless": 7393,
      "ĠZwilling": 7394,
      "ĠSeamaster": 7395,
      "ĠEcoclean": 7396,
      "ĠBattery": 7397,
      "ĠSalomon": 7398,
      "Castell": 7399,
      "OWER": 7400,
      "Richard": 7401,
      "losan": 7402,
      "Ġitem": 7403,
      "Ġatiso": 7404,
      "Ġniken": 7405,
      "Ġsáº«m": 7406,
      "ĠbazÆ¡": 7407,
      "Ġtriclosan": 7408,
      "ĠTeva": 7409,
      "ĠCinema": 7410,
      "ĠCoach": 7411,
      "ĠNitecore": 7412,
      "ĠNeutrogen": 7413,
      "ĠBambi": 7414,
      "ĠBirkenstock": 7415,
      "ĠBowers": 7416,
      "ĠBizmama": 7417,
      "ĠMishio": 7418,
      "ĠMajest": 7419,
      "ĠSomewher": 7420,
      "ĠSadeyes": 7421,
      "ĠScience": 7422,
      "ĠSkechers": 7423,
      "ĠLEATHER": 7424,
      "ĠHistory": 7425,
      "ĠPotter": 7426,
      "ĠPelikan": 7427,
      "ĠPavilion": 7428,
      "ĠRadeon": 7429,
      "ĠRaffia": 7430,
      "ĠTreatment": 7431,
      "ĠFahasa": 7432,
      "ĠILSAC": 7433,
      "Ġchiffon": 7434,
      "ĠJASO": 7435,
      "ĠAnessa": 7436,
      "ĠInvisible": 7437,
      "ĠYakult": 7438,
      "ĠAccessories": 7439,
      "ĠOwndays": 7440,
      "ĠWikipedia": 7441,
      "ĠCADIVI": 7442,
      "ĠEnchanteur": 7443,
      "ĠBalenciaga": 7444,
      "ĠTimbuk": 7445,
      "ĠSuperNOVA": 7446,
      "ĠSalvatore": 7447,
      "ĠNeutrogena": 7448,
      "ĠSomewhere": 7449,
      "+/": 7450,
      ".<": 7451,
      ".).": 7452,
      "190": 7453,
      "1800": 7454,
      "280": 7455,
      "230": 7456,
      "290": 7457,
      "212": 7458,
      "321": 7459,
      "362": 7460,
      "450": 7461,
      "63": 7462,
      "69": 7463,
      "686": 7464,
      "750": 7465,
      "730": 7466,
      "770": 7467,
      "8000": 7468,
      "92": 7469,
      ":%": 7470,
      "AK": 7471,
      "AO": 7472,
      "AV": 7473,
      "Ac": 7474,
      "BB": 7475,
      "BK": 7476,
      "Bl": 7477,
      "BÄĥng": 7478,
      "Ben": 7479,
      "Bia": 7480,
      "Ball": 7481,
      "CX": 7482,
      "CÃłi": 7483,
      "CÃ¡ch": 7484,
      "Cre": 7485,
      "CFL": 7486,
      "Ceut": 7487,
      "CARA": 7488,
      "Dáº¡": 7489,
      "ET": 7490,
      "EEN": 7491,
      "EVGA": 7492,
      "FB": 7493,
      "FPS": 7494,
      "FAR": 7495,
      "GI": 7496,
      "GPU": 7497,
      "GKVN": 7498,
      "HO": 7499,
      "Há»": 7500,
      "IX": 7501,
      "Juno": 7502,
      "King": 7503,
      "LO": 7504,
      "Loáº¡i": 7505,
      "LÆ°u": 7506,
      "Light": 7507,
      "MU": 7508,
      "MY": 7509,
      "Máº«u": 7510,
      "Mac": 7511,
      "MEN": 7512,
      "Move": 7513,
      "Nháº": 7514,
      "NIF": 7515,
      "NXB": 7516,
      "NWB": 7517,
      "Or": 7518,
      "PG": 7519,
      "Pal": 7520,
      "Protect": 7521,
      "Paul": 7522,
      "Rode": 7523,
      "Remote": 7524,
      "Sam": 7525,
      "San": 7526,
      "Sun": 7527,
      "Ste": 7528,
      "Sync": 7529,
      "TÃ¬m": 7530,
      "UE": 7531,
      "UL": 7532,
      "UV": 7533,
      "UDS": 7534,
      "VR": 7535,
      "Viá»ĩt": 7536,
      "Vita": 7537,
      "WEN": 7538,
      "ZCX": 7539,
      "_.": 7540,
      "ban": 7541,
      "bem": 7542,
      "bar": 7543,
      "bel": 7544,
      "báº¡c": 7545,
      "baby": 7546,
      "cut": 7547,
      "cÅ©i": 7548,
      "cafÃ©": 7549,
      "dar": 7550,
      "eau": 7551,
      "eiss": 7552,
      "fession": 7553,
      "gor": 7554,
      "gate": 7555,
      "gust": 7556,
      "hy": 7557,
      "hal": 7558,
      "hop": 7559,
      "just": 7560,
      "ks": 7561,
      "kmit": 7562,
      "lang": 7563,
      "lic": 7564,
      "lus": 7565,
      "lenser": 7566,
      "mai": 7567,
      "nu": 7568,
      "oS": 7569,
      "ool": 7570,
      "por": 7571,
      "page": 7572,
      "rak": 7573,
      "squ": 7574,
      "stream": 7575,
      "slite": 7576,
      "tá»": 7577,
      "tá»ĳi": 7578,
      "tory": 7579,
      "tsman": 7580,
      "ven": 7581,
      "ves": 7582,
      "vac": 7583,
      "way": 7584,
      "wat": 7585,
      "wood": 7586,
      "yjama": 7587,
      "ynamic": 7588,
      "¡o": 7589,
      "§i": 7590,
      "°å": 7591,
      "µÐ´Ñĭ": 7592,
      "¿Ĩ": 7593,
      "Ã¶": 7594,
      "Ð»Ñ": 7595,
      "âĢ": 7596,
      "æµ·": 7597,
      "Ġ/": 7598,
      "Ġ>": 7599,
      "Ġa": 7600,
      "Ġáº¯c": 7601,
      "Ġout": 7602,
      "ĠãĤ¯": 7603,
      "ĥãĤ¯": 7604,
      "Ĳng": 7605,
      "Ļn": 7606,
      "Ńãĥ": 7607,
      "á»įng": 7608,
      "á»Ĳng": 7609,
      "Ġcas": 7610,
      "ĠcÆ°a": 7611,
      "ĠcÃło": 7612,
      "Ġcáº±m": 7613,
      "Ġcrom": 7614,
      "Ġcordura": 7615,
      "Ġtanh": 7616,
      "ĠtÆ¡i": 7617,
      "Ġtáº¡t": 7618,
      "ĠtÃ¡m": 7619,
      "Ġtiá»ħn": 7620,
      "ĠtÃ³m": 7621,
      "ngth": 7622,
      "Ġnáº»": 7623,
      "Ġnem": 7624,
      "ĠÄĳay": 7625,
      "ĠÄĳÃłi": 7626,
      "ĠÄĳáº»": 7627,
      "ĠÄĳua": 7628,
      "ĠlÃµ": 7629,
      "Ġláº·p": 7630,
      "Ġliá»ħ": 7631,
      "Ġlact": 7632,
      "Ġve": 7633,
      "ĠvÆ°Æ¡ng": 7634,
      "ĠvÃ©": 7635,
      "Ġvon": 7636,
      "Ġvintage": 7637,
      "Ġmar": 7638,
      "ĠmÃ³ng": 7639,
      "Ġmáº¥y": 7640,
      "ĠmáºŃp": 7641,
      "Ġmag": 7642,
      "háº¡": 7643,
      "Ġsáº§n": 7644,
      "Ġser": 7645,
      "ĠsÃºng": 7646,
      "ĠsÃ¹i": 7647,
      "Ġskin": 7648,
      "Ġseries": 7649,
      "Ġsushi": 7650,
      "Ġbáº¡i": 7651,
      "ĠbÃ¹": 7652,
      "Ġbet": 7653,
      "Ġbiáº¿c": 7654,
      "ĠbÃ£i": 7655,
      "Ġbáº¯c": 7656,
      "Ġbina": 7657,
      "Ġberg": 7658,
      "Ġbrow": 7659,
      "Ġbaking": 7660,
      "iá»ĳt": 7661,
      "Ġgan": 7662,
      "ĠgÃ²": 7663,
      "ĠgÃ²n": 7664,
      "Ġgáº¯ng": 7665,
      "Ġgat": 7666,
      "ĠgÃµ": 7667,
      "Ġgom": 7668,
      "Ġglu": 7669,
      "Ġdynamic": 7670,
      "Ġpiqu": 7671,
      "Ġpanama": 7672,
      "Ġperox": 7673,
      "ĠthÆ°á»£ng": 7674,
      "ĠhÆ°á»Ľc": 7675,
      "Ġhip": 7676,
      "Ġtri": 7677,
      "Ġtren": 7678,
      "ĠtrÃ¢u": 7679,
      "ĠnhÃ¡y": 7680,
      "ĠnhÅ©": 7681,
      "ĠgiÃ£": 7682,
      "Ġthá»ı": 7683,
      "Ġthá»īnh": 7684,
      "Ġthá»ıa": 7685,
      "Ġcháº©n": 7686,
      "ĠÄĳá»£t": 7687,
      "Ġvá»£": 7688,
      "ĠTW": 7689,
      "ĠTÆ°": 7690,
      "ĠTÃª": 7691,
      "ĠTÃªn": 7692,
      "ĠTÆ°á»£ng": 7693,
      "ĠTan": 7694,
      "ĠTÃº": 7695,
      "ĠTem": 7696,
      "ĠTáºŃp": 7697,
      "ĠTatt": 7698,
      "ĠTank": 7699,
      "ĠTumi": 7700,
      "ĠTiáº¿p": 7701,
      "ĠCL": 7702,
      "ĠCR": 7703,
      "ĠCen": 7704,
      "ĠCÃ¢n": 7705,
      "ĠCos": 7706,
      "ĠCur": 7707,
      "ĠCre": 7708,
      "ĠCow": 7709,
      "ĠCov": 7710,
      "ĠCiao": 7711,
      "ĠCors": 7712,
      "ĠCray": 7713,
      "ĠCode": 7714,
      "ĠCoff": 7715,
      "ĠNI": 7716,
      "ĠNJ": 7717,
      "ĠNes": 7718,
      "ĠNhÃ´m": 7719,
      "ĠNook": 7720,
      "ĠNour": 7721,
      "ĠNáº¿m": 7722,
      "Ġxinh": 7723,
      "ĠxÃ©m": 7724,
      "quer": 7725,
      "ĠquÃªn": 7726,
      "Ġquáº§y": 7727,
      "ĠquÃ£ng": 7728,
      "Ġnhá»ķ": 7729,
      "Ġnhá»Ļn": 7730,
      "Ġruy": 7731,
      "ĠrÃ¡y": 7732,
      "ĠrÃ¨": 7733,
      "Ġrim": 7734,
      "ĠrÃ³t": 7735,
      "ĠrÃło": 7736,
      "Ġret": 7737,
      "Ġrá»ĵng": 7738,
      "Ġrá»ĳt": 7739,
      "ĠBle": 7740,
      "ĠBro": 7741,
      "ĠBáº£ng": 7742,
      "ĠBox": 7743,
      "ĠBea": 7744,
      "ĠBLB": 7745,
      "cho": 7746,
      "champ": 7747,
      "Ġtá»ĭnh": 7748,
      "Ġlá»ģ": 7749,
      "Ġlá»£n": 7750,
      "Ġlá»±u": 7751,
      "ange": 7752,
      "amo": 7753,
      "amot": 7754,
      "ĠÄĲáº¥t": 7755,
      "ĠÄĲÃłn": 7756,
      "ĠÄĲÃ¬nh": 7757,
      "ĠÄĲeo": 7758,
      "ĠÄĲÃ¡y": 7759,
      "ĠÄĲÄ©a": 7760,
      "ĠÄĲÃªm": 7761,
      "ĠMA": 7762,
      "ĠMH": 7763,
      "ĠMau": 7764,
      "ĠMel": 7765,
      "ĠMil": 7766,
      "ĠMul": 7767,
      "ĠMDR": 7768,
      "ĠMarg": 7769,
      "ĠMarket": 7770,
      "ĠMill": 7771,
      "ĠSO": 7772,
      "ĠSeb": 7773,
      "ĠSoot": 7774,
      "ĠSod": 7775,
      "ĠSail": 7776,
      "ĠSide": 7777,
      "ĠSko": 7778,
      "ĠSole": 7779,
      "ĠSnap": 7780,
      "ĠSUN": 7781,
      "ĠSWD": 7782,
      "ĠtÃŃa": 7783,
      "inol": 7784,
      "inboard": 7785,
      "Ġnháº±m": 7786,
      "Ġtháº¡o": 7787,
      "ĠchÃ¨": 7788,
      "ĠthÃ¹": 7789,
      "ĠVR": 7790,
      "ĠVÃł": 7791,
      "ĠViáº¿t": 7792,
      "ĠVar": 7793,
      "ĠViag": 7794,
      "ongnu": 7795,
      "ĠKX": 7796,
      "ĠKY": 7797,
      "ĠKhÃ": 7798,
      "ĠKev": 7799,
      "ĠKoi": 7800,
      "ĠKardon": 7801,
      "ĠKrak": 7802,
      "Ã©al": 7803,
      "ĠLi": 7804,
      "ĠLam": 7805,
      "ĠLÃłnh": 7806,
      "ĠLai": 7807,
      "ĠLit": 7808,
      "ĠLáºŃp": 7809,
      "ĠLÃ¢m": 7810,
      "ĠLag": 7811,
      "ĠLof": 7812,
      "ĠLew": 7813,
      "ĠLAN": 7814,
      "ĠLyc": 7815,
      "ĠLib": 7816,
      "ĠLUA": 7817,
      "ĠLury": 7818,
      "ĠLiquid": 7819,
      "ĠÄĳáº¿m": 7820,
      "Ġá»ķi": 7821,
      "ont": 7822,
      "onde": 7823,
      "Ġgá»¥": 7824,
      "ĠGE": 7825,
      "ĠGM": 7826,
      "ĠGP": 7827,
      "ĠGang": 7828,
      "ĠGus": 7829,
      "ĠGháº¿": 7830,
      "ĠGod": 7831,
      "ĠGHz": 7832,
      "ĠGMP": 7833,
      "ĠGAP": 7834,
      "ĠGaunt": 7835,
      "ĠHi": 7836,
      "ĠHz": 7837,
      "ĠHÆ¡n": 7838,
      "ĠHal": 7839,
      "ĠHÅ©": 7840,
      "ĠHá»Ļi": 7841,
      "ĠHis": 7842,
      "ĠHav": 7843,
      "ĠHair": 7844,
      "ĠHeat": 7845,
      "ĠHáº¹n": 7846,
      "ĠHarry": 7847,
      "ere": 7848,
      "erap": 7849,
      "eop": 7850,
      "ĠDC": 7851,
      "ĠDR": 7852,
      "ĠDay": 7853,
      "ĠDÃ¡ng": 7854,
      "ĠDas": 7855,
      "ĠDic": 7856,
      "ĠDore": 7857,
      "ĠDani": 7858,
      "ĠDSL": 7859,
      "ĠPo": 7860,
      "ĠPal": 7861,
      "ĠPock": 7862,
      "ĠPig": 7863,
      "ĠProtein": 7864,
      "ĠPix": 7865,
      "ĠPaul": 7866,
      "aire": 7867,
      "aider": 7868,
      "eno": 7869,
      "enz": 7870,
      "Ġthua": 7871,
      "ĠAK": 7872,
      "ĠAP": 7873,
      "ĠAX": 7874,
      "ĠAcan": 7875,
      "ĠAeon": 7876,
      "ĠARA": 7877,
      "ĠADS": 7878,
      "ĠAlex": 7879,
      "ĠAJI": 7880,
      "ĠAve": 7881,
      "Ġpho": 7882,
      "ĠGiÃ´ng": 7883,
      "ĠThiáº¿u": 7884,
      "ĠTherap": 7885,
      "otic": 7886,
      "otos": 7887,
      "Ġkhoáº»": 7888,
      "Ã¨s": 7889,
      "imal": 7890,
      "imony": 7891,
      "Ġvá»ĩt": 7892,
      "high": 7893,
      "Ġngá»įn": 7894,
      "Ġngá»±a": 7895,
      "Ġchuá»ĵng": 7896,
      "ĠRV": 7897,
      "ĠRes": 7898,
      "ĠRÃºt": 7899,
      "ĠRing": 7900,
      "ĠRow": 7901,
      "ĠRÃ¨m": 7902,
      "ĠRice": 7903,
      "ĠRCA": 7904,
      "ĠTriáº¿t": 7905,
      "ĠTráº¡ng": 7906,
      "ĠTrum": 7907,
      "ĠTrÃ£i": 7908,
      "ĠTracy": 7909,
      "ĠCháº¿t": 7910,
      "ĠthÃ¬a": 7911,
      "Ġ280": 7912,
      "Ġ290": 7913,
      "itra": 7914,
      "ĠnhÃŃp": 7915,
      "ĠgÃ¬n": 7916,
      "ority": 7917,
      "ĠEM": 7918,
      "ĠEast": 7919,
      "olor": 7920,
      "opper": 7921,
      "ĠQL": 7922,
      "ĠQÄĲ": 7923,
      "ĠQVO": 7924,
      "ĠÃļ": 7925,
      "elac": 7926,
      "elco": 7927,
      "ĠUGR": 7928,
      "Ġ34": 7929,
      "Ġ3800": 7930,
      "apido": 7931,
      "ĠQuÃ¡": 7932,
      "Ġhá»Ļc": 7933,
      "lear": 7934,
      "ros": 7935,
      "rohe": 7936,
      ",...)": 7937,
      ",...),": 7938,
      "ĠWF": 7939,
      "ĠWest": 7940,
      "ĠWacom": 7941,
      "Ġcuá»Ļn": 7942,
      "ĠChiáº¿t": 7943,
      "ĠChate": 7944,
      "ĠFM": 7945,
      "ĠFl": 7946,
      "ĠFor": 7947,
      "ĠForm": 7948,
      "ĠForce": 7949,
      "ĠFoun": 7950,
      "ĠFIT": 7951,
      "ĠFurl": 7952,
      "ĠFivestar": 7953,
      "ĠFifine": 7954,
      "ckels": 7955,
      "ĠXR": 7956,
      "ĠXÃł": 7957,
      "ĠXGA": 7958,
      "ĠOlight": 7959,
      "ĠOlay": 7960,
      "ĠOWEN": 7961,
      "oost": 7962,
      "Ġ48": 7963,
      "Ġ49": 7964,
      "Ġ4500": 7965,
      "Ġ570": 7966,
      "Ġ5800": 7967,
      "Ġ5100": 7968,
      "Ġ5600": 7969,
      "ĠVá»ĭ": 7970,
      "ĠIs": 7971,
      "ĠIlly": 7972,
      "ĠING": 7973,
      "osph": 7974,
      "ĠhÃ´m": 7975,
      "ĠSá»¹": 7976,
      "ĊĠĉ": 7977,
      "ader": 7978,
      "adder": 7979,
      "ĠMá»Ł": 7980,
      "ĠMá»ıng": 7981,
      "ĠUSD": 7982,
      "ÄĲÆ°á»£c": 7983,
      "ÄĲá»ĳi": 7984,
      "ÄĲÃ³ng": 7985,
      "ÄĲáº§m": 7986,
      "ebi": 7987,
      "trab": 7988,
      "trum": 7989,
      "ilpro": 7990,
      "ĠJan": 7991,
      "ĠJab": 7992,
      "urm": 7993,
      "ureth": 7994,
      "ĠShape": 7995,
      "ĠShould": 7996,
      "Ġá»§y": 7997,
      "ĠwebOS": 7998,
      "ĠSupple": 7999,
      "Ġcarat": 8000,
      "agg": 8001,
      "agamo": 8002,
      "inger": 8003,
      "Ġcoat": 8004,
      "ĠÄĲá»«ng": 8005,
      "ĠÄĲá»ĭnh": 8006,
      "Ġ105": 8007,
      "ylang": 8008,
      "ĠPhÆ°á»Ŀng": 8009,
      "ĠPhom": 8010,
      "ĠPhotos": 8011,
      "ides": 8012,
      "ĠProfession": 8013,
      "ĠInstag": 8014,
      "208": 8015,
      "2050": 8016,
      "2015": 8017,
      "2018": 8018,
      "ganic": 8019,
      "Ġbá»ķng": 8020,
      "1080": 8021,
      "ted": 8022,
      "ĠYN": 8023,
      "ĠYSL": 8024,
      "ĠYongnu": 8025,
      "oci": 8026,
      "ĠPhÃ¨o": 8027,
      "entino": 8028,
      "ĠTá»ıi": 8029,
      "Ġ3070": 8030,
      "ppy": 8031,
      "pper": 8032,
      "Ġfax": 8033,
      "owLight": 8034,
      "elly": 8035,
      "ĠCanali": 8036,
      "ĠAriston": 8037,
      "ĠStu": 8038,
      "ĠStorm": 8039,
      "ĠStout": 8040,
      "ĠStylus": 8041,
      "ĠHue": 8042,
      "ĠTháº§n": 8043,
      "ĠVinc": 8044,
      "ĠVinut": 8045,
      "ĠVincom": 8046,
      "Ġ93": 8047,
      "Ġ98": 8048,
      "Ġ9001": 8049,
      "3060": 8050,
      "ĠPinot": 8051,
      "obi": 8052,
      "ĠÄĳoÃ¡n": 8053,
      "403": 8054,
      "Ġloáº¡n": 8055,
      "Ġloáº¡t": 8056,
      "ĠLongchamp": 8057,
      "Ġá»Ķi": 8058,
      "loe": 8059,
      "Äĳun": 8060,
      "ĠBrigg": 8061,
      "ĠbuÃ´n": 8062,
      "ĠCase": 8063,
      "ĠAdobe": 8064,
      "ĠSpec": 8065,
      "ĠKemei": 8066,
      "GiÃºp": 8067,
      "Giáº¥y": 8068,
      "ĠAsia": 8069,
      "Charge": 8070,
      "ĠMicrofiber": 8071,
      "1280": 8072,
      "12600": 8073,
      "Ġmodem": 8074,
      "Ġmodel": 8075,
      "Ġscanner": 8076,
      "ĠPlay": 8077,
      "NgÃ¢n": 8078,
      "NgÃ´n": 8079,
      "NgÃ²i": 8080,
      "ĠDiana": 8081,
      "ĠDielac": 8082,
      "tela": 8083,
      "ĠHoan": 8084,
      "istar": 8085,
      "thority": 8086,
      "ĠDup": 8087,
      "ĠDuck": 8088,
      "ĠbÃ³p": 8089,
      "ĠAccess": 8090,
      "ĠEmpor": 8091,
      "ĠBlan": 8092,
      "ĠÐµÐ´Ñĭ": 8093,
      "241": 8094,
      "246": 8095,
      "2400": 8096,
      "issa": 8097,
      "cibel": 8098,
      "oks": 8099,
      "ĠPress": 8100,
      "ĠSuntory": 8101,
      "ĠDynamic": 8102,
      "Ġtrucker": 8103,
      "ĠHuntsman": 8104,
      "ĠNá»ķi": 8105,
      "ĠUltrab": 8106,
      "ohler": 8107,
      "ĠABV": 8108,
      "ĠCANIF": 8109,
      "ishing": 8110,
      "ĠCá»§a": 8111,
      "ĠGá»ĳiè®": 8112,
      "991": 8113,
      "Tráº»": 8114,
      "Trá»įng": 8115,
      "eve": 8116,
      "ction": 8117,
      "ĠUltraSharp": 8118,
      "ĠMonte": 8119,
      "ĠEnd": 8120,
      "ĠExcel": 8121,
      "ĠOrbit": 8122,
      "332": 8123,
      "336": 8124,
      "ĠOrijen": 8125,
      "ĠPrepar": 8126,
      "ĠCroslite": 8127,
      "2140": 8128,
      "ĠEcovac": 8129,
      "bier": 8130,
      "tain": 8131,
      "ycook": 8132,
      "ĠGlowLight": 8133,
      "ĠModem": 8134,
      "Ġ1300": 8135,
      "Ġtamari": 8136,
      "Ġmainboard": 8137,
      "ARD": 8138,
      "STI": 8139,
      "fier": 8140,
      "fiano": 8141,
      "ĠMarr": 8142,
      "ĠSkinCeut": 8143,
      "DIH": 8144,
      "ĠReact": 8145,
      "ĠReader": 8146,
      "ĠMaker": 8147,
      "ĠScyth": 8148,
      "351": 8149,
      "ASS": 8150,
      "ĠToto": 8151,
      "Ð¾Ð¹": 8152,
      "Ġboard": 8153,
      "ĠTCVN": 8154,
      "ĠAmerica": 8155,
      "ĠTrueMove": 8156,
      "568": 8157,
      "56240": 8158,
      "Ġovan": 8159,
      "ĠTarget": 8160,
      "ĠELTs": 8161,
      "neaker": 8162,
      "ĠThermal": 8163,
      "ĠThermos": 8164,
      "ĠOneBl": 8165,
      "ĠMoon": 8166,
      "ĠMobell": 8167,
      "eramides": 8168,
      "acool": 8169,
      "ĠSimply": 8170,
      "ĠLevitra": 8171,
      "ĠParkson": 8172,
      "Ġ4503": 8173,
      "âĤ«.": 8174,
      "ÑĥÑģ": 8175,
      "ĠBull": 8176,
      "ĠMFQ": 8177,
      "ÄĲá»ĭa": 8178,
      "ĠSoundcore": 8179,
      "ĠSoundbar": 8180,
      "375": 8181,
      "972": 8182,
      "ĠAtom": 8183,
      "Ġxá»īa": 8184,
      "Ð°ÐºÐ¸": 8185,
      "ĠDolceVita": 8186,
      "HCM": 8187,
      "tuos": 8188,
      "ĠNestle": 8189,
      "ĠHocmai": 8190,
      "ĠPuff": 8191,
      "ĠNghiÃªn": 8192,
      "ĠInstrum": 8193,
      "ĠActiv": 8194,
      "ĠrÃ£nh": 8195,
      "ĠSmooth": 8196,
      "ĠHermÃ¨s": 8197,
      "ĠWorks": 8198,
      "ĠWorkpack": 8199,
      "ĠCoolmax": 8200,
      "ĠMobiistar": 8201,
      "ONIC": 8202,
      "Ġnude": 8203,
      "Ġkiá»ģng": 8204,
      "ĠTough": 8205,
      "ĠColgate": 8206,
      "ĠEric": 8207,
      "ĠFenix": 8208,
      "ĠIKEA": 8209,
      "ĠPepsiCo": 8210,
      "4621": 8211,
      "meal": 8212,
      "tionary": 8213,
      "zoyl": 8214,
      "ãĤ¹": 8215,
      "ĠTaka": 8216,
      "ĠCeran": 8217,
      "ĠMusgr": 8218,
      "ĠMustela": 8219,
      "ĠLavie": 8220,
      "ĠLavender": 8221,
      "ĠPetstag": 8222,
      "ĠEOB": 8223,
      "Cuá»ĳi": 8224,
      "ĠSamuelson": 8225,
      "ĠSaffiano": 8226,
      "ĠCompany": 8227,
      "ĠSunsilk": 8228,
      "Ġglycolic": 8229,
      "Dá»¥ng": 8230,
      "Ġamply": 8231,
      "Ġcache": 8232,
      "Ġmacro": 8233,
      "ĠmacOS": 8234,
      "Ġdecibel": 8235,
      "ĠBigC": 8236,
      "ĠSmartCook": 8237,
      "ĠGaN": 8238,
      "ĠHenckels": 8239,
      "ĠRiley": 8240,
      "ĠOatmeal": 8241,
      "acyd": 8242,
      "ĠArctic": 8243,
      "ĠFerroli": 8244,
      "ĠFerragamo": 8245,
      "DLX": 8246,
      "Gá»įng": 8247,
      "Giá»ı": 8248,
      "Ġbikini": 8249,
      "ĠSleeve": 8250,
      "ĠAuthority": 8251,
      "ĠRugged": 8252,
      "ĠRanarp": 8253,
      "ĠRanbem": 8254,
      "ĠnhÃºn": 8255,
      "ĠBoostCharge": 8256,
      "ĠMoisturizer": 8257,
      "ĠimageCL": 8258,
      "ĠimageFOR": 8259,
      "ãĥŃãĥ": 8260,
      "ĠNotePal": 8261,
      "ĠMetiz": 8262,
      "ĠLedlenser": 8263,
      "ĠSpecial": 8264,
      "point": 8265,
      "ĠTexas": 8266,
      "ĠSyrah": 8267,
      "ĠValentino": 8268,
      "ĠKellogg": 8269,
      "ĠKindle": 8270,
      "ĠDenkmit": 8271,
      "hirt": 8272,
      "ĠRunner": 8273,
      "olfix": 8274,
      "ĠYealink": 8275,
      "ĠStandard": 8276,
      "ĠPatrimony": 8277,
      "ĠKiyo": 8278,
      "ĠBrewery": 8279,
      "ĠHappyCook": 8280,
      "ĠDeathadder": 8281,
      "KNS": 8282,
      "NESSE": 8283,
      "Sunhouse": 8284,
      "ç»µ": 8285,
      "Ġterabyte": 8286,
      "Ġplastic": 8287,
      "ĠCyberPower": 8288,
      "ĠSSHD": 8289,
      "ĠKasumi": 8290,
      "ĠTá»ķng": 8291,
      "Ġbulb": 8292,
      "ĠtuÃ½p": 8293,
      "ĠDuffel": 8294,
      "ĠClimacool": 8295,
      "ĠDeepcool": 8296,
      "ĠÐ´ÑĢÑĥÐ³Ð¾Ð¹": 8297,
      "Classic": 8298,
      "Ġnilon": 8299,
      "Ġniacinamide": 8300,
      "Ġberet": 8301,
      "ĠTerra": 8302,
      "ĠTenda": 8303,
      "ĠCrucial": 8304,
      "ĠNorelco": 8305,
      "ĠBloks": 8306,
      "ĠMOBA": 8307,
      "ĠVASCARA": 8308,
      "ĠKanken": 8309,
      "ĠKotler": 8310,
      "ĠLactacyd": 8311,
      "ĠHarman": 8312,
      "ĠHarrison": 8313,
      "ĠDiver": 8314,
      "ĠDatejust": 8315,
      "ĠRival": 8316,
      "ĠRomano": 8317,
      "Ġsulfate": 8318,
      "ĠIdeaPad": 8319,
      "ĠThÃºy": 8320,
      "bridge": 8321,
      "ĠRealme": 8322,
      "ĠThermoBall": 8323,
      "ĠÐ²Ð¸Ð´Ñĭ": 8324,
      "ĠMajestic": 8325,
      "FARUDS": 8326,
      "MULA": 8327,
      "OrÃ©al": 8328,
      "Samuelson": 8329,
      "SanDisk": 8330,
      "tá»«": 8331,
      "°å¿Ĩ": 8332,
      "âĢĭ": 8333,
      "æµ·ç»µ": 8334,
      "Ġoutlet": 8335,
      "ĠãĤ¯ãĥŃãĥ": 8336,
      "ĥãĤ¯ãĤ¹": 8337,
      "Ġliá»ħu": 8338,
      "Ġmarble": 8339,
      "Ġserum": 8340,
      "Ġskinny": 8341,
      "Ġbergamot": 8342,
      "Ġbrowline": 8343,
      "Ġgato": 8344,
      "ĠpiquÃ©": 8345,
      "Ġperoxide": 8346,
      "Ġtrench": 8347,
      "ĠTattoo": 8348,
      "ĠCrayon": 8349,
      "ĠCoffee": 8350,
      "ĠNescafÃ©": 8351,
      "ĠBleach": 8352,
      "ĠBrooks": 8353,
      "ĠBeach": 8354,
      "ĠMelissa": 8355,
      "ĠMargar": 8356,
      "ĠSoothing": 8357,
      "ĠSoda": 8358,
      "ĠSailor": 8359,
      "ĠSkool": 8360,
      "ĠSoleil": 8361,
      "ĠViagra": 8362,
      "ĠKraken": 8363,
      "ĠLittle": 8364,
      "ĠLofans": 8365,
      "ĠLewis": 8366,
      "ĠLycra": 8367,
      "ĠLUALA": 8368,
      "ĠGusto": 8369,
      "ĠGodox": 8370,
      "ĠGauntlet": 8371,
      "ĠHisense": 8372,
      "ĠDasani": 8373,
      "ĠDictionary": 8374,
      "ĠDoreen": 8375,
      "ĠDSLR": 8376,
      "ĠPocket": 8377,
      "ĠAcana": 8378,
      "ĠAveeno": 8379,
      "ĠTherapy": 8380,
      "ĠUGREEN": 8381,
      "ĠChateau": 8382,
      "ĠFountain": 8383,
      "ĠFITNESSE": 8384,
      "ĠFurla": 8385,
      "ĠINGCO": 8386,
      "ĠJabra": 8387,
      "urethane": 8388,
      "ĠShoulders": 8389,
      "ĠPhotoshop": 8390,
      "ĠProfessional": 8391,
      "ĠInstagram": 8392,
      "ĠYongnuo": 8393,
      "ĠBriggs": 8394,
      "ĠEmporio": 8395,
      "ĠUltraboost": 8396,
      "ĠCANIFA": 8397,
      "ĠGá»ĳiè®°å¿Ĩ": 8398,
      "ĠPreparation": 8399,
      "ĠEcovacs": 8400,
      "ĠSkinCeuticals": 8401,
      "ĠScythe": 8402,
      "ĠOneBlade": 8403,
      "Ð°ÐºÐ¸Ðµ": 8404,
      "ĠInstruments": 8405,
      "ĠMusgrave": 8406,
      "ĠPetstages": 8407,
      "ĠimageCLASS": 8408,
      "ĠimageFORMULA": 8409,
      "FARUDSA": 8410,
      "ĠãĤ¯ãĥŃãĥĥãĤ¯ãĤ¹": 8411,
      "ĠGá»ĳiè®°å¿Ĩæµ·ç»µ": 8412,
      "!:": 8413,
      ")?": 8414,
      ")...": 8415,
      "+,": 8416,
      ".,": 8417,
      "05": 8418,
      "09": 8419,
      "010": 8420,
      "033": 8421,
      "250": 8422,
      "215": 8423,
      "2800": 8424,
      "2100": 8425,
      "233": 8426,
      "315": 8427,
      "3800": 8428,
      "325": 8429,
      "3600": 8430,
      "365": 8431,
      "41": 8432,
      "430": 8433,
      "490": 8434,
      "497": 8435,
      "5000": 8436,
      "510": 8437,
      "560": 8438,
      "570": 8439,
      "558": 8440,
      "610": 8441,
      "6420": 8442,
      "710": 8443,
      "8380": 8444,
      "94": 8445,
      "9000": 8446,
      "990": 8447,
      "9100": 8448,
      "9332": 8449,
      "?\"": 8450,
      "AX": 8451,
      "Amer": 8452,
      "Audio": 8453,
      "BH": 8454,
      "BÃ´ng": 8455,
      "Bos": 8456,
      "Bá»ķ": 8457,
      "CB": 8458,
      "CG": 8459,
      "CS": 8460,
      "Cá»": 8461,
      "CÃ¢y": 8462,
      "Cream": 8463,
      "Carry": 8464,
      "Cdw": 8465,
      "Color": 8466,
      "EB": 8467,
      "EW": 8468,
      "Em": 8469,
      "Er": 8470,
      "English": 8471,
      "FA": 8472,
      "FC": 8473,
      "FH": 8474,
      "Fit": 8475,
      "Full": 8476,
      "Gr": 8477,
      "GÃ³c": 8478,
      "Gel": 8479,
      "HÃł": 8480,
      "Hal": 8481,
      "Há»ĵi": 8482,
      "Hoa": 8483,
      "HÃ£y": 8484,
      "Hand": 8485,
      "Hard": 8486,
      "ID": 8487,
      "IVY": 8488,
      "Ives": 8489,
      "John": 8490,
      "KK": 8491,
      "Khá»": 8492,
      "Kinh": 8493,
      "Káº¿t": 8494,
      "LY": 8495,
      "Má»Ĺi": 8496,
      "Meyer": 8497,
      "NT": 8498,
      "NhÃ": 8499,
      "NÆ°á»Ľc": 8500,
      "NARD": 8501,
      "Ol": 8502,
      "Ow": 8503,
      "Off": 8504,
      "One": 8505,
      "PM": 8506,
      "Po": 8507,
      "PhÃ": 8508,
      "Pet": 8509,
      "PRO": 8510,
      "Poly": 8511,
      "SA": 8512,
      "SN": 8513,
      "Sc": 8514,
      "Sá»ĳ": 8515,
      "Ston": 8516,
      "Smart": 8517,
      "Slim": 8518,
      "Siemens": 8519,
      "Spin": 8520,
      "TT": 8521,
      "TY": 8522,
      "Ti": 8523,
      "TÃªn": 8524,
      "Tiáº¿t": 8525,
      "Táº§n": 8526,
      "Tuá»ķi": 8527,
      "Tef": 8528,
      "Tex": 8529,
      "Toshiba": 8530,
      "UY": 8531,
      "UPF": 8532,
      "VW": 8533,
      "Vac": 8534,
      "Viet": 8535,
      "WL": 8536,
      "Wid": 8537,
      "XL": 8538,
      "XP": 8539,
      "YÃªu": 8540,
      "Yee": 8541,
      "ca": 8542,
      "cu": 8543,
      "cá»": 8544,
      "cao": 8545,
      "care": 8546,
      "dung": 8547,
      "dpi": 8548,
      "eco": 8549,
      "eige": 8550,
      "fid": 8551,
      "fri": 8552,
      "fram": 8553,
      "feld": 8554,
      "gund": 8555,
      "gory": 8556,
      "ham": 8557,
      "hay": 8558,
      "him": 8559,
      "hel": 8560,
      "hÅ©": 8561,
      "hand": 8562,
      "hog": 8563,
      "hlon": 8564,
      "ilet": 8565,
      "ja": 8566,
      "jo": 8567,
      "jit": 8568,
      "jitsu": 8569,
      "kam": 8570,
      "kim": 8571,
      "kle": 8572,
      "ket": 8573,
      "kHz": 8574,
      "key": 8575,
      "kany": 8576,
      "kaline": 8577,
      "lym": 8578,
      "lott": 8579,
      "mÃ©": 8580,
      "met": 8581,
      "max": 8582,
      "mens": 8583,
      "nan": 8584,
      "nai": 8585,
      "nik": 8586,
      "ness": 8587,
      "nie": 8588,
      "nitive": 8589,
      "oz": 8590,
      "oung": 8591,
      "oop": 8592,
      "pH": 8593,
      "pir": 8594,
      "pers": 8595,
      "prop": 8596,
      "poly": 8597,
      "ron": 8598,
      "rit": 8599,
      "run": 8600,
      "rio": 8601,
      "right": 8602,
      "reme": 8603,
      "rge": 8604,
      "sy": 8605,
      "sáº£n": 8606,
      "sáº¯t": 8607,
      "sun": 8608,
      "sulin": 8609,
      "shirt": 8610,
      "thÃ©p": 8611,
      "tune": 8612,
      "uv": 8613,
      "uch": 8614,
      "uter": 8615,
      "uoc": 8616,
      "vy": 8617,
      "vet": 8618,
      "vess": 8619,
      "yMan": 8620,
      "zz": 8621,
      "¢nh": 8622,
      "¦i": 8623,
      "§a": 8624,
      "³n": 8625,
      "ºng": 8626,
      "½n": 8627,
      "Ðº": 8628,
      "ÐºÐ¸": 8629,
      "Ġam": 8630,
      "Ġel": 8631,
      "Ġamin": 8632,
      "Ġex": 8633,
      "Ġoi": 8634,
      "ĠÑĤ": 8635,
      "Ļi": 8636,
      "Ļp": 8637,
      "ļt": 8638,
      "Ľn": 8639,
      "á»Ķ": 8640,
      "Ġcáº¡n": 8641,
      "Ġcáº¯p": 8642,
      "Ġcell": 8643,
      "Ġclo": 8644,
      "ĠcáºŃu": 8645,
      "Ġceramides": 8646,
      "Ġtá»Ļc": 8647,
      "ĠtiÃªm": 8648,
      "Ġtaurine": 8649,
      "ngean": 8650,
      "ngood": 8651,
      "Ġniá»": 8652,
      "Ġná»ĳt": 8653,
      "ĠnÃ©m": 8654,
      "ĠniÃªm": 8655,
      "Ġneon": 8656,
      "ĠÄĳá»ĳ": 8657,
      "ĠÄĳiá»ĥu": 8658,
      "ĠÄĳáº¯n": 8659,
      "há»Ļp": 8660,
      "ĠlÆ¡": 8661,
      "Ġlao": 8662,
      "Ġváº¯n": 8663,
      "Ġme": 8664,
      "ĠmÃ³": 8665,
      "Ġmiá»ĩn": 8666,
      "Ġmáº©n": 8667,
      "ĠmÃ²i": 8668,
      "háº½n": 8669,
      "Ġsa": 8670,
      "ĠsÃª": 8671,
      "Ġsiáº¿t": 8672,
      "Ġsáº·c": 8673,
      "ĠsÃłi": 8674,
      "Ġsel": 8675,
      "Ġset": 8676,
      "Ġsaf": 8677,
      "ĠsÆ°á»Ŀn": 8678,
      "Ġby": 8679,
      "Ġbinh": 8680,
      "Ġbar": 8681,
      "Ġbal": 8682,
      "Ġbá»ĳc": 8683,
      "ĠbÄĥm": 8684,
      "Ġbean": 8685,
      "Ġbass": 8686,
      "Ġbáº£y": 8687,
      "Ġkeratin": 8688,
      "Ġgluten": 8689,
      "Ġghim": 8690,
      "Ġdiá»ģu": 8691,
      "Ġdong": 8692,
      "ĠdÆ¡i": 8693,
      "ĠdÆ°a": 8694,
      "Ġdiá»ĩp": 8695,
      "ĠdÅ©ng": 8696,
      "Ġdimmer": 8697,
      "áº¿ng": 8698,
      "Ġpi": 8699,
      "Ġpate": 8700,
      "Ġpiz": 8701,
      "Ġpanel": 8702,
      "Ġpiston": 8703,
      "Ġpyjama": 8704,
      "ĠthÄĥm": 8705,
      "Ġthuyá»ģn": 8706,
      "Ġhang": 8707,
      "Ġhen": 8708,
      "Ġhat": 8709,
      "Ġhack": 8710,
      "Ġtráº·c": 8711,
      "ĠtrÃº": 8712,
      "ĠtrÃ¡ch": 8713,
      "ĠtrÃŃch": 8714,
      "Ġtráº¯c": 8715,
      "Ġtráº¡m": 8716,
      "ĠnhÃ¡m": 8717,
      "Ġnhiáº¿p": 8718,
      "ĠgiÃłn": 8719,
      "ĠgiÃłnh": 8720,
      "Ġgiáº¿ng": 8721,
      "ĠÄĳá»įng": 8722,
      "Ġvá»¯a": 8723,
      "Ġhá»ģ": 8724,
      "Ġhá»¥t": 8725,
      "Ġhá»ıa": 8726,
      "aono": 8727,
      "ĠTD": 8728,
      "ĠTX": 8729,
      "ĠTÆ°á»Ŀng": 8730,
      "ĠTÃŃ": 8731,
      "ĠTÃŃch": 8732,
      "ĠTÄĥm": 8733,
      "ĠTur": 8734,
      "ĠTuá»ĳc": 8735,
      "ĠTint": 8736,
      "ĠTory": 8737,
      "ĠTDL": 8738,
      "ĠTune": 8739,
      "Ġchá»ĳt": 8740,
      "Ġchá»Ļi": 8741,
      "ĠngÄĥm": 8742,
      "Ġngoan": 8743,
      "Ġngháº½n": 8744,
      "Ġsá»¡": 8745,
      "Ġsá»ī": 8746,
      "Ġsá»ĭp": 8747,
      "Ġsá»§i": 8748,
      "ĠCO": 8749,
      "ĠCr": 8750,
      "ĠCÆ°Æ¡ng": 8751,
      "ĠCáº§u": 8752,
      "ĠCor": 8753,
      "ĠCá»ĳc": 8754,
      "ĠCáºŃp": 8755,
      "ĠCoo": 8756,
      "ĠCand": 8757,
      "ĠCog": 8758,
      "ĠCed": 8759,
      "ĠCell": 8760,
      "ĠColl": 8761,
      "ĠCry": 8762,
      "ĠCold": 8763,
      "ĠCial": 8764,
      "ĠCaffe": 8765,
      "ĠCáº©m": 8766,
      "ĠCeramic": 8767,
      "ĠCCA": 8768,
      "ĠCCS": 8769,
      "ĠNu": 8770,
      "ĠNÆ¡i": 8771,
      "ĠNÃ©t": 8772,
      "ĠNom": 8773,
      "ĠNáº¯p": 8774,
      "ĠNá»ĵng": 8775,
      "ĠNak": 8776,
      "ĠNob": 8777,
      "ĠNive": 8778,
      "ĠNep": 8779,
      "ĠNill": 8780,
      "ĠNose": 8781,
      "ĠNapa": 8782,
      "ĠxÃ´ng": 8783,
      "Ġxáº¯n": 8784,
      "Ġxyl": 8785,
      "quiri": 8786,
      "Ġque": 8787,
      "Ġquá»·": 8788,
      "ĠrÃª": 8789,
      "ĠrÃ¡t": 8790,
      "Ġrock": 8791,
      "ĠBL": 8792,
      "ĠBÃª": 8793,
      "ĠBÃ²": 8794,
      "ĠBáº±ng": 8795,
      "ĠBif": 8796,
      "ĠBáº¡ch": 8797,
      "ĠBá»ĳt": 8798,
      "ĠBab": 8799,
      "ĠBio": 8800,
      "ĠBord": 8801,
      "ĠBree": 8802,
      "ĠBoom": 8803,
      "ĠBaker": 8804,
      "ĠBSG": 8805,
      "uyo": 8806,
      "uyen": 8807,
      "chn": 8808,
      "chies": 8809,
      "Ġtá»¥t": 8810,
      "amic": 8811,
      "ames": 8812,
      "amastic": 8813,
      "Ġchon": 8814,
      "ĠÄĲÆ°Æ¡ng": 8815,
      "ĠÄĲÆ¡n": 8816,
      "ĠÄĲÃłi": 8817,
      "ĠÄĲáº¿n": 8818,
      "ĠÄĲáº·ng": 8819,
      "ĠMD": 8820,
      "ĠML": 8821,
      "ĠMS": 8822,
      "ĠMr": 8823,
      "ĠMop": 8824,
      "ĠMáº£nh": 8825,
      "ĠMis": 8826,
      "ĠMÆ°á»£t": 8827,
      "ĠMep": 8828,
      "ĠMach": 8829,
      "ĠMDF": 8830,
      "ĠMLB": 8831,
      "ĠMindy": 8832,
      "ĠMolfix": 8833,
      "auty": 8834,
      "Ġhop": 8835,
      "Ġhoáº¡": 8836,
      "Ġhoan": 8837,
      "Ġhoen": 8838,
      "ĠSP": 8839,
      "ĠSi": 8840,
      "ĠSn": 8841,
      "ĠSÃ¡ng": 8842,
      "ĠSÆ°á»Łi": 8843,
      "ĠSant": 8844,
      "ĠSMB": 8845,
      "ĠSDR": 8846,
      "ĠSele": 8847,
      "ĠSAR": 8848,
      "ĠShir": 8849,
      "ĠSolution": 8850,
      "ĠSIX": 8851,
      "ĠSVR": 8852,
      "inz": 8853,
      "inox": 8854,
      "inav": 8855,
      "inary": 8856,
      "Ġnháº¥p": 8857,
      "ĠVI": 8858,
      "ĠVS": 8859,
      "ĠVÃło": 8860,
      "ĠVod": 8861,
      "ĠViz": 8862,
      "ĠViss": 8863,
      "ĠVsun": 8864,
      "Ġmá»³": 8865,
      "Ġmá»ı": 8866,
      "ĠKao": 8867,
      "ĠKhÃ´": 8868,
      "ĠKon": 8869,
      "ĠKok": 8870,
      "ĠKVN": 8871,
      "ĠKAT": 8872,
      "ĠKON": 8873,
      "ĠKiá»ģng": 8874,
      "ĠKori": 8875,
      "ĠKikk": 8876,
      "ĠKohler": 8877,
      "ĠLÃ´": 8878,
      "ĠLáº¡nh": 8879,
      "ĠLun": 8880,
      "ĠLik": 8881,
      "ĠLiti": 8882,
      "ĠLoan": 8883,
      "ĠLeon": 8884,
      "ĠLoom": 8885,
      "ĠLuster": 8886,
      "ĠLeop": 8887,
      "Ġá»¦i": 8888,
      "onnai": 8889,
      "ĠGA": 8890,
      "ĠGR": 8891,
      "ĠGot": 8892,
      "ĠGore": 8893,
      "ĠGard": 8894,
      "ĠGree": 8895,
      "ĠGrow": 8896,
      "ĠGrohe": 8897,
      "Ġkháº¿": 8898,
      "Ġkháº¯t": 8899,
      "ĠHO": 8900,
      "ĠHW": 8901,
      "ĠHÃłnh": 8902,
      "ĠHÃ¹ng": 8903,
      "ĠHas": 8904,
      "ĠHaz": 8905,
      "ĠHed": 8906,
      "ĠHáºŃu": 8907,
      "ĠHaw": 8908,
      "ĠHoney": 8909,
      "erh": 8910,
      "eral": 8911,
      "ĠDD": 8912,
      "ĠDS": 8913,
      "ĠDinh": 8914,
      "ĠDÃłnh": 8915,
      "ĠDor": 8916,
      "ĠDet": 8917,
      "ĠDerm": 8918,
      "ĠDec": 8919,
      "ĠDzo": 8920,
      "ĠDonald": 8921,
      "ĠDogg": 8922,
      "ĠDsqu": 8923,
      "ĠPH": 8924,
      "ĠPa": 8925,
      "ĠPau": 8926,
      "ĠPas": 8927,
      "ĠPop": 8928,
      "ĠPul": 8929,
      "ĠPAN": 8930,
      "ĠPDF": 8931,
      "ĠPBN": 8932,
      "ĠPOWER": 8933,
      "Ġháº¯c": 8934,
      "Ġháº³n": 8935,
      "enic": 8936,
      "enex": 8937,
      "enware": 8938,
      "ĠthuÃª": 8939,
      "ĠAg": 8940,
      "ĠAv": 8941,
      "ĠAor": 8942,
      "ĠAes": 8943,
      "ĠAur": 8944,
      "ĠAst": 8945,
      "ĠAut": 8946,
      "ĠADF": 8947,
      "emmÃ©": 8948,
      "ĠphÆ°á»£ng": 8949,
      "Ġphiáº¿u": 8950,
      "Ġphosph": 8951,
      "ĠGiven": 8952,
      "Ġ160": 8953,
      "Ġ130": 8954,
      "ared": 8955,
      "arbu": 8956,
      "ĠnhuáºŃn": 8957,
      "ĠThan": 8958,
      "ĠThoa": 8959,
      "aset": 8960,
      "Ġkhoáº£n": 8961,
      "Ġnghiá»ģn": 8962,
      "imo": 8963,
      "hite": 8964,
      "hist": 8965,
      "higg": 8966,
      "Ġngá»Ńi": 8967,
      "ĠNgon": 8968,
      "ĠNguyen": 8969,
      "...)": 8970,
      "...).": 8971,
      "Ġchuá»ĳi": 8972,
      "ĠRJ": 8973,
      "ĠRá»": 8974,
      "ĠRong": 8975,
      "ĠRab": 8976,
      "ĠRef": 8977,
      "ĠRio": 8978,
      "ĠRub": 8979,
      "ĠRado": 8980,
      "ĠRaider": 8981,
      "ĠTráº¡i": 8982,
      "ĠTrÃŃ": 8983,
      "ĠTrá»ĳng": 8984,
      "ĠTrad": 8985,
      "ĠTrimmer": 8986,
      "ĠCháº³ng": 8987,
      "Ġinsulin": 8988,
      "Ġtourm": 8989,
      "Ġtoilet": 8990,
      "Ġ210": 8991,
      "Ġ2600": 8992,
      "Ġ297": 8993,
      "itu": 8994,
      "itch": 8995,
      "itol": 8996,
      "itaire": 8997,
      "ĠGiÃ¡m": 8998,
      "Ġraff": 8999,
      "Ġkhá»įt": 9000,
      "ĠEA": 9001,
      "ĠEP": 9002,
      "ĠEu": 9003,
      "ĠEle": 9004,
      "ĠEst": 9005,
      "ĠEuc": 9006,
      "ĠEER": 9007,
      "ĠETD": 9008,
      "ĠEarbu": 9009,
      "olon": 9010,
      "olog": 9011,
      "esav": 9012,
      "ĠQuyáº¿t": 9013,
      "ĠQoS": 9014,
      "eline": 9015,
      "elight": 9016,
      "Ġmayonnai": 9017,
      "ĠUse": 9018,
      "Ġ36": 9019,
      "Ġ37": 9020,
      "Ġ320": 9021,
      "Ġ310": 9022,
      "Ġ330": 9023,
      "apper": 9024,
      "Ġankle": 9025,
      "ĠQuáº£ng": 9026,
      "lee": 9027,
      "rog": 9028,
      "rose": 9029,
      "ĠWW": 9030,
      "ĠWin": 9031,
      "ĠWine": 9032,
      "ĠWord": 9033,
      "ĠWST": 9034,
      "ĠWeiss": 9035,
      "ata": 9036,
      "ates": 9037,
      "ative": 9038,
      "athlon": 9039,
      "Ġculott": 9040,
      "ĠCha": 9041,
      "ĠChan": 9042,
      "ĠChoo": 9043,
      "ĠCharm": 9044,
      "ĠChrom": 9045,
      "Ġrá»ħ": 9046,
      "ĠFat": 9047,
      "ĠFiti": 9048,
      "ĠFore": 9049,
      "ĠFri": 9050,
      "ĠFant": 9051,
      "ĠFisk": 9052,
      "ĠFinal": 9053,
      "ĠFury": 9054,
      "ĠFlour": 9055,
      "ĠFire": 9056,
      "ĠFinger": 9057,
      "ĠFloe": 9058,
      "ĠXB": 9059,
      "ĠXO": 9060,
      "ĠXP": 9061,
      "ĠXÃ£": 9062,
      "ĠXDR": 9063,
      "ĠXvess": 9064,
      "ush": 9065,
      "ustr": 9066,
      "ĠOp": 9067,
      "ĠODI": 9068,
      "ĠOlym": 9069,
      "ision": 9070,
      "ets": 9071,
      "etsu": 9072,
      "ĠÄĳÃ³i": 9073,
      "oosh": 9074,
      "Ġ4000": 9075,
      "Ġ411": 9076,
      "Ġ52": 9077,
      "Ġ56": 9078,
      "Ġ5000": 9079,
      "Ġ511": 9080,
      "ĠVá»¡": 9081,
      "ĠVá»Ł": 9082,
      "kiw": 9083,
      "Ġáº¢nh": 9084,
      "omo": 9085,
      "oman": 9086,
      "omost": 9087,
      "ĠIS": 9088,
      "ĠIV": 9089,
      "ĠIt": 9090,
      "ĠIng": 9091,
      "oster": 9092,
      "osaki": 9093,
      "osimex": 9094,
      "dich": 9095,
      "dium": 9096,
      "ĠSá»Ŀ": 9097,
      "lide": 9098,
      "libur": 9099,
      "liket": 9100,
      "ĠThá»į": 9101,
      "Ġgaming": 9102,
      "acter": 9103,
      "acell": 9104,
      "Ġhá»ĩt": 9105,
      "ĠUSDA": 9106,
      "ÄĲiá»ģu": 9107,
      "ÄĲáº§u": 9108,
      "alier": 9109,
      "trÃªn": 9110,
      "tron": 9111,
      "ils": 9112,
      "ilky": 9113,
      "ildo": 9114,
      "Ġ6000": 9115,
      "Ġ680": 9116,
      "Ġtuyá»ĥn": 9117,
      "ĠChá»£": 9118,
      "ĠChá»ĭ": 9119,
      "ĠChá»ĭu": 9120,
      "ĠJE": 9121,
      "ĠJZ": 9122,
      "ĠJo": 9123,
      "ĠJef": 9124,
      "ĠJunior": 9125,
      "ĠJames": 9126,
      "urai": 9127,
      "ĠKhay": 9128,
      "ĠKhÃ¡nh": 9129,
      "ĠShel": 9130,
      "este": 9131,
      "Ġlumens": 9132,
      "aga": 9133,
      "ington": 9134,
      "andinav": 9135,
      "ĠÄĲá»ģ": 9136,
      "ĠÄĲá»Ĵ": 9137,
      "ĠÄĲá»ķ": 9138,
      "ĠÄĲá»Ĺ": 9139,
      "ogenic": 9140,
      "ĠAnta": 9141,
      "ĠAnne": 9142,
      "yliss": 9143,
      "abit": 9144,
      "abounce": 9145,
      "azon": 9146,
      "igold": 9147,
      "idmi": 9148,
      "oxide": 9149,
      "ĠInter": 9150,
      "ĠInax": 9151,
      "ĠInst": 9152,
      "ĠIncase": 9153,
      "ĠDá»©a": 9154,
      "ĠCuá»ĳc": 9155,
      "209": 9156,
      "2020": 9157,
      "2030": 9158,
      "2061": 9159,
      "ated": 9160,
      "á»ĩnh": 9161,
      "Ġtrá»ĭa": 9162,
      "103": 9163,
      "104": 9164,
      "berland": 9165,
      "Ġbá»ĩn": 9166,
      "ĠYG": 9167,
      "ĠYama": 9168,
      "ĠYah": 9169,
      "ĠYKK": 9170,
      "ĠYoung": 9171,
      "ĠYomost": 9172,
      "Tham": 9173,
      "Thef": 9174,
      "occo": 9175,
      "ouch": 9176,
      "ouline": 9177,
      "ĠBlum": 9178,
      "Ġ72": 9179,
      "Ġ710": 9180,
      "enty": 9181,
      "Ġ3040": 9182,
      "ĠCá»¥": 9183,
      "ĠCá»Ĺ": 9184,
      "ppm": 9185,
      "Ġfx": 9186,
      "Ġfile": 9187,
      "ĠZeg": 9188,
      "ĠZento": 9189,
      "ĠZapper": 9190,
      "ellar": 9191,
      "ellation": 9192,
      "ĠTrá»Ł": 9193,
      "809": 9194,
      "ĠCanada": 9195,
      "ĠCanzy": 9196,
      "ĠArco": 9197,
      "ĠArth": 9198,
      "ĠArena": 9199,
      "ĠStok": 9200,
      "Ġ121": 9201,
      "Ġ123": 9202,
      "ĠTháº¯ng": 9203,
      "ĠTháºŃt": 9204,
      "egildo": 9205,
      "Ġ990": 9206,
      "ĠchÃ¬m": 9207,
      "afil": 9208,
      "obs": 9209,
      "coal": 9210,
      "ĠiB": 9211,
      "ĠiOS": 9212,
      "ĠloÃ¡ng": 9213,
      "cano": 9214,
      "ĠlÃ£nh": 9215,
      "over": 9216,
      "ĠHá»§": 9217,
      "ĠBá»ģ": 9218,
      "ÄĳÆ°á»Ŀng": 9219,
      "Äĳen": 9220,
      "ĠGá»įn": 9221,
      "ĠBram": 9222,
      "ĠAdams": 9223,
      "ardit": 9224,
      "ĠSpock": 9225,
      "ĠCourt": 9226,
      "ĠCozy": 9227,
      "pho": 9228,
      "phere": 9229,
      "ĠSokany": 9230,
      "olla": 9231,
      "115": 9232,
      "ĠLubi": 9233,
      "ĠAss": 9234,
      "Chiá»ģu": 9235,
      "Chuá»Ļt": 9236,
      "sons": 9237,
      "12700": 9238,
      "708": 9239,
      "Ġoxford": 9240,
      "ĠKháº£i": 9241,
      "ĠPlan": 9242,
      "ĠPlasm": 9243,
      "Ngoáº¡i": 9244,
      "Nguyá»ħn": 9245,
      "Nghá»ĩ": 9246,
      "USE": 9247,
      "ĠRoidmi": 9248,
      "ĠTeflon": 9249,
      "ĠDupli": 9250,
      "ĠDuhigg": 9251,
      "ĠBlah": 9252,
      "Ġformal": 9253,
      "oku": 9254,
      "ĠPrin": 9255,
      "Ġ253": 9256,
      "Ġ2560": 9257,
      "ĠMiliket": 9258,
      "185": 9259,
      "ĠHydro": 9260,
      "ublic": 9261,
      "ĠDoji": 9262,
      "awa": 9263,
      "aws": 9264,
      "ĠCASI": 9265,
      "ĠCASO": 9266,
      "Ġ1440": 9267,
      "Trang": 9268,
      "Trong": 9269,
      "TrÃ¢m": 9270,
      "Ð¾Ðµ": 9271,
      "ĠLaneige": 9272,
      "ĠFujitsu": 9273,
      "Nhu": 9274,
      "ĠTomtoc": 9275,
      "ĠClass": 9276,
      "ĠBrothers": 9277,
      "astane": 9278,
      "ffett": 9279,
      "nament": 9280,
      "ĠCardigan": 9281,
      "136": 9282,
      "137": 9283,
      "ĠEnvy": 9284,
      "ĠOmen": 9285,
      "ĠOmni": 9286,
      "333": 9287,
      "ĠChuá»Ļt": 9288,
      "CDW": 9289,
      "ĠCrown": 9290,
      "ĠPowerLite": 9291,
      "ĠFrank": 9292,
      "ĠFruit": 9293,
      "255": 9294,
      "2560": 9295,
      "ÐµÑĢ": 9296,
      "ĠthÃ´n": 9297,
      "ĠThuá»Ļc": 9298,
      "ations": 9299,
      "Tek": 9300,
      "2700": 9301,
      "2715": 9302,
      "6511": 9303,
      "Ð¸Ðµ": 9304,
      "Ð¸Ð½": 9305,
      "ĠMerino": 9306,
      "ĠLauder": 9307,
      "ĠAlcatel": 9308,
      "ĠAlkaline": 9309,
      "ĠELC": 9310,
      "ĠBlackWid": 9311,
      "SIC": 9312,
      "ĠBasics": 9313,
      "ĠRyobi": 9314,
      "ĠWebsite": 9315,
      "BASIC": 9316,
      "386": 9317,
      "COM": 9318,
      "ĠTechn": 9319,
      "ĠMarc": 9320,
      "ĠMary": 9321,
      "ĠMarigold": 9322,
      "ĠSkincare": 9323,
      "ĠRejo": 9324,
      "Ð°Ñģ": 9325,
      "ĠBanana": 9326,
      "ĠScandinav": 9327,
      "ĠJotamastic": 9328,
      "Ġfloppy": 9329,
      "1949": 9330,
      "3520": 9331,
      "ASONIC": 9332,
      "dragon": 9333,
      "ĠTHáº¬": 9334,
      "ĠBalimo": 9335,
      "Ġ2700": 9336,
      "ĠCharcoal": 9337,
      "Ð¾ÐºÐ¾": 9338,
      "ESemmÃ©": 9339,
      "Ġboy": 9340,
      "Ġboater": 9341,
      "ĠBurch": 9342,
      "ĠBurgund": 9343,
      "ĠMicellar": 9344,
      "ĠDelta": 9345,
      "ĠPLB": 9346,
      "ĠRemov": 9347,
      "ĠRemington": 9348,
      "3001": 9349,
      "dehy": 9350,
      "ĠMaxMeyer": 9351,
      "Ġphotpho": 9352,
      "ĠJohnnie": 9353,
      "ĠOrigin": 9354,
      "RAM": 9355,
      "ĠSanada": 9356,
      "ĠPeter": 9357,
      "ĠMojit": 9358,
      "ĠMobils": 9359,
      "ĠRobot": 9360,
      "ĠTimberland": 9361,
      "ĠMaggi": 9362,
      "ĠPerf": 9363,
      "ĠYoga": 9364,
      "ĠYogood": 9365,
      "ĠBug": 9366,
      "ĠBuffett": 9367,
      "ĠChoice": 9368,
      "ĠProbiotics": 9369,
      "ĠCá»ķng": 9370,
      "menegildo": 9371,
      "Ġcacbon": 9372,
      "ĠBarolo": 9373,
      "ĠMFW": 9374,
      "Ġnháº·t": 9375,
      "ĠAmazon": 9376,
      "ĠEliteBook": 9377,
      "3770": 9378,
      "3718": 9379,
      "RISTI": 9380,
      "cond": 9381,
      "ĠTSP": 9382,
      "ĠTournament": 9383,
      "ĠGrass": 9384,
      "ĠRedmi": 9385,
      "ĠBlueSton": 9386,
      "ĠRoyale": 9387,
      "ĠClearbaby": 9388,
      "ĠMasterLiquid": 9389,
      "Ð°Ð¼": 9390,
      "ĠVersa": 9391,
      "ĠLeika": 9392,
      "ĠLength": 9393,
      "ĠPhá»Ł": 9394,
      "ĠAQR": 9395,
      "ĠConstellation": 9396,
      "3270": 9397,
      "Cambridge": 9398,
      "ecca": 9399,
      "ĠNTEC": 9400,
      "ĠKengood": 9401,
      "ĠGeorge": 9402,
      "ĠPuppy": 9403,
      "ĠNghÄ©a": 9404,
      "ĠWilfa": 9405,
      "ĠInspire": 9406,
      "DWB": 9407,
      "DWE": 9408,
      "Ġzoom": 9409,
      "ĠBoox": 9410,
      "ĠVanilla": 9411,
      "ĠGoon": 9412,
      "ĠWorkForce": 9413,
      "ĠSupreme": 9414,
      "5240": 9415,
      "gehog": 9416,
      "ĠBeauty": 9417,
      "ĠBref": 9418,
      "ĠMugen": 9419,
      "ĠMuji": 9420,
      "ĠSinger": 9421,
      "ĠSingles": 9422,
      "ĠErgor": 9423,
      "ĠErmenegildo": 9424,
      "ĠWalter": 9425,
      "ĠWalker": 9426,
      "RPM": 9427,
      "Vá»¥": 9428,
      "Vá»Ľi": 9429,
      "ĠCapital": 9430,
      "ĠMomo": 9431,
      "ĠHanosimex": 9432,
      "ĠDLEX": 9433,
      "ĠDaiquiri": 9434,
      "ĠDalat": 9435,
      "ĠDuracell": 9436,
      "ĠPetdar": 9437,
      "ĠRetro": 9438,
      "ĠRetina": 9439,
      "ĠRetinol": 9440,
      "ĠEOT": 9441,
      "Ġpolyurethane": 9442,
      "Cuá»Ļc": 9443,
      "Cuda": 9444,
      "ault": 9445,
      "ĠSamurai": 9446,
      "ĠDeuter": 9447,
      "ĠFastpack": 9448,
      "ĠFastVac": 9449,
      "063": 9450,
      "Anker": 9451,
      "ORE": 9452,
      "ĠTitanium": 9453,
      "ĠManolo": 9454,
      "ĠStrap": 9455,
      "ĠVCS": 9456,
      "ĠVeet": 9457,
      "ĠVengean": 9458,
      "ĠLegend": 9459,
      "ĠHappycook": 9460,
      "ĠDoman": 9461,
      "ĠRichard": 9462,
      "ĠSimpleCarry": 9463,
      "ĠPerfectCare": 9464,
      "4208": 9465,
      "5723": 9466,
      "Cool": 9467,
      "Giá»¯a": 9468,
      "Má»©c": 9469,
      "Má»±c": 9470,
      "Ð½ÑĭÐµ": 9471,
      "Ġknee": 9472,
      "ĠVideo": 9473,
      "ĠKitty": 9474,
      "ĠGuardit": 9475,
      "ĠProtection": 9476,
      "ĠAIO": 9477,
      "ĠnhÃºm": 9478,
      "acluster": 9479,
      "acuda": 9480,
      "ĠCoopmart": 9481,
      "ĠCoopMart": 9482,
      "ĠAlphabounce": 9483,
      "MAX": 9484,
      "Seagate": 9485,
      "Seasonic": 9486,
      "press": 9487,
      "print": 9488,
      "Ġsáº£y": 9489,
      "Ġgranola": 9490,
      "Ġchlorogenic": 9491,
      "ĠTwenty": 9492,
      "Ġquá»³": 9493,
      "ĠLedYee": 9494,
      "ĠDáº¡y": 9495,
      "ĠDreamhome": 9496,
      "ĠEasySpin": 9497,
      "ĠCharge": 9498,
      "ĠCharging": 9499,
      "ternal": 9500,
      "abeco": 9501,
      "ĠSpeaker": 9502,
      "ĠPremier": 9503,
      "ÐµÐ·": 9504,
      "ĠGlenn": 9505,
      "ĠGlenfid": 9506,
      "ĠScotland": 9507,
      "Adder": 9508,
      "anced": 9509,
      "ĠValley": 9510,
      "ĠKeller": 9511,
      "ĠYeelight": 9512,
      "ĠÐ¿Ð¾Ð»": 9513,
      "ĠKiyosaki": 9514,
      "ĠDeathAdder": 9515,
      "644": 9516,
      "International": 9517,
      "Lenovo": 9518,
      "Pháº§n": 9519,
      "saac": 9520,
      "www": 9521,
      "ÑĩÐ°": 9522,
      "ĠTRESemmÃ©": 9523,
      "ĠNova": 9524,
      "ĠNovel": 9525,
      "ĠMcM": 9526,
      "ĠVHF": 9527,
      "ĠVenus": 9528,
      "ĠVelvet": 9529,
      "ĠKaai": 9530,
      "ĠKaLi": 9531,
      "ĠKeyboard": 9532,
[...]
